node {
  name: "global_step"
  op: "Variable"
  attr {
    key: "_output_shapes"
    value {
      list {
        shape {
        }
      }
    }
  }
  attr {
    key: "container"
    value {
      s: ""
    }
  }
  attr {
    key: "dtype"
    value {
      type: DT_INT64
    }
  }
  attr {
    key: "shape"
    value {
      shape {
      }
    }
  }
  attr {
    key: "shared_name"
    value {
      s: ""
    }
  }
}
node {
  name: "global_step/Initializer/zeros"
  op: "Const"
  attr {
    key: "_class"
    value {
      list {
        s: "loc:@global_step"
      }
    }
  }
  attr {
    key: "_output_shapes"
    value {
      list {
        shape {
        }
      }
    }
  }
  attr {
    key: "dtype"
    value {
      type: DT_INT64
    }
  }
  attr {
    key: "value"
    value {
      tensor {
        dtype: DT_INT64
        tensor_shape {
        }
        int64_val: 0
      }
    }
  }
}
node {
  name: "global_step/Assign"
  op: "Assign"
  input: "global_step"
  input: "global_step/Initializer/zeros"
  attr {
    key: "T"
    value {
      type: DT_INT64
    }
  }
  attr {
    key: "_class"
    value {
      list {
        s: "loc:@global_step"
      }
    }
  }
  attr {
    key: "_output_shapes"
    value {
      list {
        shape {
        }
      }
    }
  }
  attr {
    key: "use_locking"
    value {
      b: true
    }
  }
  attr {
    key: "validate_shape"
    value {
      b: true
    }
  }
}
node {
  name: "global_step/read"
  op: "Identity"
  input: "global_step"
  attr {
    key: "T"
    value {
      type: DT_INT64
    }
  }
  attr {
    key: "_class"
    value {
      list {
        s: "loc:@global_step"
      }
    }
  }
  attr {
    key: "_output_shapes"
    value {
      list {
        shape {
        }
      }
    }
  }
}
node {
  name: "Const"
  op: "Const"
  attr {
    key: "_output_shapes"
    value {
      list {
        shape {
          dim {
            size: 603
          }
        }
      }
    }
  }
  attr {
    key: "dtype"
    value {
      type: DT_FLOAT
    }
  }
  attr {
    key: "value"
    value {
      tensor {
        dtype: DT_FLOAT
        tensor_shape {
          dim {
            size: 603
          }
        }
        tensor_content: "\000\000@@\000\000\240@\000\000\000@\000\000@@\000\000\200@\000\000@@\000\000@@\000\000@@\000\000\000\000\000\000@@\000\000\240@\000\000\000@\000\000@@\000\000\000@\000\000\000\000\000\000\200@\000\000\000@\000\000\200@\000\000\000\000\000\000\240@\000\000\200@\000\000@@\000\000\000@\000\000\000\000\000\000\340@\000\000\200@\000\000\340@\000\000@@\000\000\200@\000\000\000@\000\000\000@\000\000@@\000\000\200@\000\000\000@\000\000\000@\000\000\000@\000\000@@\000\000\200@\000\000\000\000\000\000\000\000\000\000\000@\000\000\000@\000\000\240@\000\000\240@\000\000\000@\000\000\200?\000\000\000@\000\000\000@\000\000\000@\000\000\200@\000\000\000@\000\000@@\000\000@@\000\000\240@\000\000\000\000\000\000\240@\000\000\200?\000\000@@\000\000pA\000\000\000@\000\000\000@\000\000@@\000\000\000@\000\000\000@\000\000\200@\000\000\200@\000\000\200?\000\000\200@\000\000\000@\000\000@@\000\000\200@\000\000\200@\000\000\000@\000\000\240@\000\000@@\000\000\000\000\000\000@@\000\000\200?\000\000@@\000\000\240@\000\000@@\000\000\000@\000\000\200@\000\000\000@\000\000\000@\000\000@@\000\000\000@\000\000@@\000\000\200@\000\000\200?\000\000\000@\000\000@@\000\000\240@\000\000\000\000\000\000\000@\000\000\200@\000\000\000@\000\000\000@\000\000\200@\000\000@@\000\000\000@\000\000\000\000\000\000\240@\000\000\000\000\000\000\000@\000\000\200@\000\000\200@\000\000@@\000\000\000@\000\000\200@\000\000\200@\000\000\000\000\000\000\000@\000\000\240@\000\000\200?\000\000\200@\000\000\200@\000\000\200@\000\000@@\000\000\000\000\000\000@@\000\000\000@\000\000\000\000\000\000@@\000\000@@\000\000\240@\000\000\240@\000\000\000@\000\000\200@\000\000@@\000\000\000\000\000\000\000@\000\000@@\000\000\000@\000\000@@\000\000@@\000\000@@\000\000\000@\000\000\000@\000\000\200?\000\000@@\000\000\200@\000\000@@\000\000@@\000\000\000@\000\000@@\000\000\000@\000\000\000A\000\000\000@\000\000@@\000\000\200?\000\000@@\000\000\200@\000\000\200@\000\000\000@\000\000\000@\000\000@@\000\000\200?\000\000@@\000\000\000@\000\000\200@\000\000\000@\000\000\000@\000\000\200?\000\000\200@\000\000@@\000\000\200@\000\000\000@\000\000\000@\000\000\000@\000\000\200?\000\000@@\000\000\000@\000\000\000@\000\000\200@\000\000\020A\000\000@@\000\000\000@\000\000\200?\000\000\000@\000\000@@\000\000\200@\000\000@@\000\000@@\000\000\000@\000\000\000@\000\000\200?\000\000\000\000\000\000@@\000\000@@\000\000\240@\000\000\000\000\000\000\200?\000\000\200?\000\000\000@\000\000\000@\000\000\000@\000\000\000@\000\000\200@\000\000\000@\000\000\000@\000\000@@\000\000\000@\000\000@@\000\000\200@\000\000@@\000\000\000@\000\000\000\000\000\000\000@\000\000\200@\000\000\200@\000\000\200?\000\000@@\000\000\000@\000\000@@\000\000\000\000\000\000\240@\000\000\000@\000\000\000\000\000\000\240@\000\000@@\000\000\000@\000\000@@\000\000\000@\000\000\340@\000\000\000@\000\000\200@\000\000\000@\000\000\240@\000\000\200@\000\000\200@\000\000\000\000\000\000\000@\000\000\200@\000\000\000@\000\000@@\000\000\200@\000\000\300@\000\000\200@\000\000\200?\000\000\000\000\000\000\000\000\000\000@@\000\000\000@\000\000\000@\000\000\240@\000\000\000@\000\000\240@\000\000\200@\000\000\340@\000\000\000\000\000\000@@\000\000\300@\000\000@@\000\000\340@\000\000\000@\000\000\200@\000\000\200@\000\000\000@\000\000\200@\000\000@@\000\000\000@\000\000\000@\000\000\000@\000\000@@\000\000\240@\000\000@@\000\000\200?\000\000\000@\000\000\200?\000\000\200@\000\000\200@\000\000\240@\000\000\240@\000\000\200?\000\000\200@\000\000\000@\000\000\200@\000\000\200@\000\000\200@\000\000\000@\000\000@@\000\000\200?\000\000\000@\000\000\200@\000\000@@\000\000\200@\000\000@@\000\000\000@\000\000\300@\000\000\200@\000\000@@\000\000\200?\000\000\000@\000\000\000@\000\000\200@\000\000@@\000\000\200@\000\000\000\000\000\000@@\000\000\200?\000\000\000@\000\000\000@\000\000@@\000\000\200?\000\000\000\000\000\000@@\000\000@@\000\000@@\000\000\200@\000\000\000@\000\000\000@\000\000\200@\000\000@@\000\000@@\000\000@@\000\000\200@\000\000\200@\000\000@@\000\000@@\000\000\000@\000\000@@\000\000\000@\000\000\000@\000\000\300@\000\000@@\000\000@@\000\000\200?\000\000\200@\000\000\200@\000\000@@\000\000@@\000\000\000@\000\000@@\000\000\000@\000\000\240@\000\000\200@\000\000\240@\000\000\240@\000\000\200@\000\000\200@\000\000\200@\000\000\200@\000\000\200@\000\000\000@\000\000\240@\000\000@@\000\000\200@\000\000@@\000\000\000@\000\000\000@\000\000\240@\000\000\200@\000\000\000\000\000\000\020A\000\000@@\000\000@@\000\000\000@\000\000\000@\000\000\000@\000\000\000@\000\000\000@\000\000\200?\000\000@@\000\000@@\000\000\300@\000\000@@\000\000\000@\000\000\000@\000\000\200?\000\000@@\000\000\200@\000\000@@\000\000\200@\000\000\000@\000\000\200?\000\000\000\000\000\000\000\000\000\000@@\000\000\200@\000\000\200@\000\000\000\000\000\000\000@\000\000\300@\000\000\000\000\000\000\000@\000\000\200@\000\000\000@\000\000\200@\000\000\000@\000\000\200?\000\000\200@\000\000@@\000\000\200?\000\000@@\000\000\020A\000\000\240@\000\000@@\000\000@@\000\000@@\000\000@@\000\000\200?\000\000\000@\000\000\000@\000\000\000\000\000\000\300@\000\000\000\000\000\000\000@\000\000\200@\000\000\240@\000\000@@\000\000@@\000\000\300@\000\000@@\000\000\200@\000\000\240@\000\000\200@\000\000\200@\000\000@@\000\000\200?\000\000\200@\000\000\200@\000\000@@\000\000@@\000\000\000@\000\000@@\000\000\000@\000\000\200@\000\000\200?\000\000\000\000\000\000\200@\000\000@@\000\000\200@\000\000\200?\000\000@@\000\000\200@\000\000\200@\000\000@@\000\000\000@\000\000\000\000\000\000\200@\000\000@@\000\000\000@\000\000\000@\000\000\000@\000\000@@\000\000\200@\000\000@@\000\000@@\000\000\200?\000\000\000@\000\000\200@\000\000\200?\000\000\240@\000\000\240@\000\000\200@\000\000@@\000\000@@\000\000\000@\000\000\200@\000\000\200@\000\000\200?\000\000\300@\000\000\200?\000\000\000@\000\000@@\000\000\000\000\000\000\240@\000\000\240@\000\000\000@\000\000\200@\000\0000A\000\000\000@\000\000\200@\000\000\200@\000\000\000@\000\000@@\000\000@@\000\000\240@\000\000\200@\000\000\000\000\000\000@@\000\000\000@\000\000\200@\000\000@@\000\000\000@\000\000\000@\000\000@@\000\000\000@\000\000@@\000\000@@\000\000\000@\000\000\000@\000\000\240@\000\000\200@\000\000\000@\000\000\000@\000\000\000@\000\000\000@\000\000\240@\000\000@@\000\000\000@\000\000\000\000\000\000@@\000\000\240@\000\000@@\000\000\200@\000\000@@\000\000\000@\000\000\000@\000\000@@\000\000\240@\000\000\200@\000\000\200@\000\000\200?\000\000\300@\000\000\000@\000\000\240@\000\000\200?\000\000\000@\000\000\000@\000\000\200@\000\000\200@\000\000@@\000\000@@\000\000\200@\000\000@@\000\000\000@\000\000\000@\000\000\200?\000\000\200?\000\000\200@\000\000\200@\000\000@@\000\000\200@\000\000\000\000\000\000@@\000\000\000@\000\000\240@\000\000\200@\000\000\000@\000\000\340@\000\000\240@\000\000@@\000\000\200?\000\000@@\000\000@@\000\000\000@\000\000\000\000\000\000\000@\000\000\240@\000\000\200@\000\000@@\000\000\240@\000\000\200@\000\000@@\000\000\000@\000\000@@\000\000\200?\000\000\240@\000\000\000@\000\000\000@\000\000\000@\000\000@@\000\000\240@\000\000\200@\000\000\000@\000\000\340@\000\000\200@\000\000\000@\000\000\200@\000\000\000@\000\000@@\000\000@@\000\000\200@\000\000\200?\000\000@@\000\000\000@\000\000\240@\000\000\300@\000\000\000@\000\000\000@\000\000\200@\000\000\200@\000\000\200@\000\000\200@\000\000\000\000\000\000\000@\000\000\000@\000\000\240@\000\000\200@\000\000@@\000\000\000\000\000\000\000@\000\000\000@\000\000@@\000\000@@\000\000\000\000\000\000\000@\000\000@@\000\000\200@\000\000\200?\000\000\000@"
      }
    }
  }
}
node {
  name: "Const_1"
  op: "Const"
  attr {
    key: "_output_shapes"
    value {
      list {
        shape {
          dim {
            size: 603
          }
        }
      }
    }
  }
  attr {
    key: "dtype"
    value {
      type: DT_FLOAT
    }
  }
  attr {
    key: "value"
    value {
      tensor {
        dtype: DT_FLOAT
        tensor_shape {
          dim {
            size: 603
          }
        }
        tensor_content: "\000\000\200@\000\000\200@\000\000@@\000\000@@\000\000\000@\000\000\000@\000\000@@\000\000@@\000\000\000@\000\000\000@\000\000\260@\000\000\000@\000\000\000@\000\000\000@\000\000\000\000\000\000@@\000\000\000@\000\000\200?\000\000\000\000\000\000@@\000\000@@\000\000\000@\000\000\000@\000\000\000\000\000\000 A\000\000@@\000\000\030A\000\000@@\000\000\000@\000\000\000@\000\000\200?\000\000\200@\000\000`@\000\000\000@\000\000\000@\000\000\200?\000\000\000@\000\000\240@\000\000\000\000\000\000\200?\000\000\000@\000\000\000@\000\000@@\000\000\200@\000\000\000@\000\000\200?\000\000\200?\000\000\200?\000\000\000@\000\000@@\000\000\000@\000\000@@\000\000\000@\000\000\200@\000\000\000\000\000\000\260@\000\000\200?\000\000@@\000\000 A\000\000\200?\000\000\200?\000\000@@\000\000\000@\000\000\000@\000\000@@\000\000@@\000\000\200?\000\000@@\000\000\200?\000\000\000@\000\000\240@\000\000@@\000\000@@\000\000\240@\000\000@@\000\000\000\000\000\000\200@\000\000\200?\000\000\000@\000\000\300@\000\000\000@\000\000\200?\000\000@@\000\000\000@\000\000@@\000\000 @\000\000\000@\000\000@@\000\000\000@\000\000\200?\000\000\200?\000\000\000@\000\000@@\000\000\000\000\000\000\020@\000\000\000@\000\000\200?\000\000\000@\000\000\200@\000\000@@\000\000\000@\000\000\000\000\000\000@@\000\000\200?\000\000\000@\000\000@@\000\000\200@\000\000@@\000\000\000@\000\000\200@\000\000\000@\000\000\000\000\000\000@@\000\000\240@\000\000\200?\000\000\240@\000\000\200@\000\000\240@\000\000\000@\000\000\200?\000\000\000@\000\000 @\000\000\000\000\000\000\000@\000\000\000@\000\000\200@\000\000\200@\000\000\200?\000\000\240@\000\000\000@\000\000\200?\000\000\000@\000\000\000@\000\000\000@\000\000@@\000\000\000@\000\000\000@\000\000\000@\000\000\000@\000\000\200?\000\000\000@\000\000\200@\000\000\000@\000\000\000@\000\000\200?\000\000\000@\000\000\000@\000\000\340@\000\000\000@\000\000\000@\000\000\200?\000\000\000@\000\000\200@\000\000`@\000\000\200?\000\000\000@\000\000\000@\000\000\200?\000\000\200@\000\000\000@\000\000@@\000\000@@\000\000\000@\000\000\200?\000\000\000@\000\000@@\000\000\200@\000\000\200?\000\000\240@\000\000\000@\000\000\000@\000\000\000@\000\000\200?\000\000\000@\000\000\240@\000\000\000A\000\000\200@\000\000\000@\000\000\200?\000\000\000@\000\000\000\000\000\000\000@\000\000\000@\000\000\000@\000\000\000@\000\000\200?\000\000\200?\000\000\000\000\000\000\000@\000\000@@\000\000\200@\000\000\000\000\000\000\200?\000\000\200?\000\000\000@\000\000 @\000\000\000@\000\000\000@\000\000@@\000\000\000\000\000\000\000@\000\000@@\000\000\000@\000\000\000@\000\000@@\000\000\200?\000\000@@\000\000\000\000\000\000\000@\000\000@@\000\000\000@\000\000\000@\000\000\000@\000\000\000@\000\000@@\000\000\200?\000\000\240@\000\000\000@\000\000\000\000\000\000\200@\000\000\000@\000\000\200?\000\000\200@\000\000\200?\000\000\300@\000\000\200?\000\000\200@\000\000\000\000\000\000\200@\000\000\200@\000\000@@\000\000\000\000\000\000\200?\000\000\240@\000\000\000@\000\000\000@\000\000@@\000\000\240@\000\000@@\000\000\200?\000\000\000\000\000\000\000\000\000\000\000@\000\000\000@\000\000\000@\000\000\300@\000\000\200?\000\000@@\000\000`@\000\000\240@\000\000\000\000\000\000\000@\000\000\020A\000\000\000@\000\0000A\000\000@@\000\000@@\000\000\200@\000\000\000@\000\000@@\000\000\000@\000\000\200?\000\000\000@\000\000\000@\000\000\000@\000\000\200@\000\000@@\000\000\000@\000\000\000@\000\000\200?\000\000\200@\000\000\300@\000\000\240@\000\000\200@\000\000\200?\000\000\240@\000\000\000@\000\000@@\000\000@@\000\000\200@\000\000\000@\000\000\000@\000\000\200?\000\000\000@\000\000@@\000\000\000@\000\000`@\000\000\000@\000\000\000@\000\000\200@\000\000\000@\000\000@@\000\000\200?\000\000\000@\000\000\200?\000\000\300@\000\000@@\000\000\240@\000\000\000\000\000\000@@\000\000\200?\000\000\000@\000\000\000@\000\000\000@\000\000\200?\000\000\200?\000\000\000@\000\000\000@\000\000@@\000\000\000@\000\000\000@\000\000 @\000\000\240@\000\000@@\000\000@@\000\000@@\000\000@@\000\000@@\000\000@@\000\000\000@\000\000\200?\000\000@@\000\000\000@\000\000\000@\000\000\240@\000\000\000@\000\000\000@\000\000\200?\000\000\240@\000\000\000@\000\000@@\000\000\000@\000\000\000@\000\000\000@\000\000\000\000\000\000@@\000\000@@\000\000\200@\000\000\240@\000\000\240@\000\000\200@\000\000\000@\000\000\200@\000\000\200?\000\000\000@\000\000\200@\000\000@@\000\000@@\000\000\000@\000\000\000@\000\000\200?\000\000\300@\000\000@@\000\000\200?\000\000\340@\000\000\200?\000\000\000@\000\000\200?\000\000\000@\000\000\200?\000\000\000@\000\000\000@\000\000\000@\000\000\000@\000\000\000@\000\000\320@\000\000\200@\000\000\000@\000\000\000@\000\000\200?\000\000\200?\000\000\200@\000\000`@\000\000@@\000\000\200?\000\000\200?\000\000\000\000\000\000\000\000\000\000\000@\000\000\300@\000\000\240@\000\000\000\000\000\000\000@\000\000\300@\000\000\000\000\000\000\000@\000\000\000@\000\000\000@\000\000@@\000\000\200?\000\000\200?\000\000@@\000\000@@\000\000\200?\000\000\000@\000\000\240@\000\000\000@\000\000@@\000\000\000@\000\000@@\000\000\000@\000\000\000@\000\000\000\000\000\000\000@\000\000\000\000\000\000@@\000\000\000\000\000\000\000@\000\000\000@\000\000\000A\000\000\000@\000\000\000@\000\000`@\000\000@@\000\000\200@\000\000\240@\000\000\200@\000\000@@\000\000@@\000\000\300?\000\000@@\000\000\240@\000\000@@\000\000@@\000\000\200?\000\000\000@\000\000\200?\000\000\200@\000\000\200?\000\000\000\000\000\000\000@\000\000@@\000\000\200@\000\000\200?\000\000 @\000\000@@\000\000@@\000\000@@\000\000@@\000\000\000\000\000\000\200@\000\000\000@\000\000\000@\000\000\000@\000\000\000@\000\000@@\000\000\240@\000\000\200@\000\000@@\000\000\200?\000\000\200?\000\000@@\000\000\200?\000\000\300@\000\000\340@\000\000\000@\000\000\000@\000\000\000@\000\000@@\000\000`@\000\000\000\000\000\000\200?\000\000\340@\000\000\200?\000\000\000@\000\000\000@\000\000\000\000\000\000\240@\000\000\200@\000\000\000@\000\000\200@\000\000\300@\000\000\000@\000\000 @\000\000@@\000\000\200?\000\000\000@\000\000\000@\000\000\200@\000\000\200@\000\000\000\000\000\000\000@\000\000@@\000\000\000@\000\000\200@\000\000\000@\000\000\000@\000\000\000@\000\000\200?\000\000\000@\000\000\200@\000\000\200?\000\000\000@\000\000@@\000\000@@\000\000\200?\000\000\000@\000\000\000@\000\000\000@\000\000`@\000\000@@\000\000\000@\000\000\000\000\000\000@@\000\000\340@\000\000@@\000\000@@\000\000\240@\000\000\000@\000\000\200?\000\000@@\000\000@@\000\000@@\000\000\200@\000\000\200?\000\000\200@\000\000\000@\000\000\220@\000\000\200?\000\000\000@\000\000\000@\000\000\000@\000\000\200@\000\000\000@\000\000@@\000\000\240@\000\000@@\000\000\000@\000\000\200?\000\000\200?\000\000\200?\000\000@@\000\000\000@\000\000\200@\000\000\220@\000\000\000\000\000\000\200?\000\000\000@\000\000\240@\000\000@@\000\000\200?\000\000\320@\000\000\300@\000\000@@\000\000\300?\000\000\200@\000\000@@\000\000\200?\000\000\000\000\000\000\000@\000\000@@\000\000\220@\000\000@@\000\000\240@\000\000@@\000\000\000@\000\000\200?\000\000\000@\000\000\200?\000\000\340@\000\000\200?\000\000\000@\000\000\200?\000\000\000@\000\000\240@\000\000\000@\000\000\200?\000\000\000A\000\000@@\000\000@@\000\000`@\000\000\200?\000\000@@\000\000\000@\000\000\200@\000\000\200?\000\000@@\000\000\200?\000\000\240@\000\000@@\000\000\200?\000\000\000@\000\000\240@\000\000\240@\000\000@@\000\000\200@\000\000\000\000\000\000\000@\000\000\000@\000\000\200@\000\000@@\000\000\000@\000\000\000\000\000\000\000@\000\000\200?\000\000\000@\000\000\000@\000\000\000\000\000\000\000@\000\000\200?\000\000\000@\000\000\200?\000\000\200?"
      }
    }
  }
}
node {
  name: "Const_2"
  op: "Const"
  attr {
    key: "_output_shapes"
    value {
      list {
        shape {
          dim {
            size: 603
          }
        }
      }
    }
  }
  attr {
    key: "dtype"
    value {
      type: DT_FLOAT
    }
  }
  attr {
    key: "value"
    value {
      tensor {
        dtype: DT_FLOAT
        tensor_shape {
          dim {
            size: 603
          }
        }
        tensor_content: "\000\220@E\000\340\024E\0000\001E\000\000\000\000\000\300\344D\000`\375D\000\260<E\000\240\373D\000\300FE\000\200\tE\000\340qE\000`\204D\000`\352D\000\0007D\000\360\206E\000\000\000\000\000`\275D\000\000\222D\000\000\000\000\000\000*E\000P.E\000\300\325D\000 \240D\000\260\213E\000\3541F\000P\034E\000\014UF\000\260\014E\000\000\325D\000\000\257D\000\000_D\000@fE\000\240:E\000\200\245D\000 \220D\000\000aD\000@\270D\000\200\242E\000@\003E\000\300\032D\000 \253D\000 \227D\0000)E\000\360mE\000\300}D\000@\003D\000 \240D\000\000CD\000\300\230D\000`\006E\000@\347D\000`\025E\000\200\315D\000@\203E\0000rF\000\320OE\000\000*D\000\200\266D\000,UF\000\200QD\000\300ZD\000`\360D\000`\232D\000\000iD\000\200\030E\000\200\000E\000@?D\000\340:E\000@}D\000\340\323D\000\340\244E\000\240*E\000\020\035E\000\220\216E\000\000\260D\000\300 E\000\360sE\000@$D\000\200\311D\000p\232E\000\000\322D\000@.D\000@\014E\000`\266D\000\360\036E\000\200\025E\000\000\220D\000\000\000\000\000\200\343D\000\300)D\000\000ZD\000\000\320D\000\020{E\000\000\000\000\000\000\233D\000\340\rE\000\200ED\000\000\341D\000\360,E\000\200\324D\000\300\247D\000\240vE\000\340;E\000\000\355C\000\000\221D\000`\364D\000@\370D\000\200\235D\000\200\226D\000\200\221D\000\200\tE\000\340OE\000@\003E\000\370\261E\000\200\242D\000`\206E\000@\003E\000\220HE\000\000\360D\000\000\000\000\000\300\320D\000\200\266D\000`\023E\000@\335D\000`\302D\0000LE\000\300AE\000 \262D\000\320HE\000\360#E\000\300\313D\000\220\nE\000\300\263D\000\300\200D\000\300\370D\000@\003E\000\240\245D\000`\317D\000`\206D\000\200\"D\000\000RD\000\240\033E\000\300\301D\000\000\315D\000\000kD\000\200\317D\000\300\254D\000\240\226E\000\300\264D\000@\270D\000\000*D\000\000\234D\000\300AE\000(\334E\000\000\201D\000`\242D\000\000\334D\000\000WD\000\240\033E\000`\222D\000\240\322D\000P\027E\000\300}D\000\300yD\000\000\365D\000\220<E\000p&E\000\000\201D\000\300\254D\000\340\226D\000\300\210D\000\340\310D\000\200]D\000\000RD\000\300\320E\000x\272E\000\360&E\000`\213D\000\300ID\000\000{D\000`\266D\000\340\304D\000\200\263D\000\300\235D\000\000zD\000\000XD\000\000+D\000\200\266D\000 \265D\000\200\350D\000\300IE\000\354\251F\000\3009D\000\000ID\000 \312D\000\200\355D\000\200\211D\000\200,E\000`\334D\000\000\264D\000\200rD\000\340\027E\000\000\207D\000\200\357D\000\300\337D\000\200\211D\000`\251D\000\000\000\000\000\000\341D\0000>E\000P\004E\000`\220D\000\300\212D\000\300\250D\000\320\001E\000\000zD\000 \217E\000@sD\000\004\030F\000\000zE\000\000\372D\000\000nD\000p`E\000@\206D\000\340\235E\000\000\177D\000\300\037E\000\000\341D\000\320\204E\000\240_E\000pCE\000@IE\000\000>D\000\300\217E\000\000\220D\000`\333D\000\000HE\000\300\250E\000\200,E\000@4D\000\030\234E\000\300=E\000\300\250D\000\000gD\000\300nD\000\030\262E\000@CD\000\000\000\000\000\000\'E\000\320\317E\000\260tE\000`\205D\000\240\357E\000@\331D\000``F\000@\271D\000\340TE\000\000\000\000\000 \224D\000\240\025E\000\200\212D\000 \213D\000\200nD\000\300\213D\000\240\256D\000 \200E\000\000\366D\000\300ZD\000\000\000\000\000\0007D\000\240\024E\000\000\242E\000\240bE\000`\013E\000\000\004D\000\200\324E\000@zD\000\000\363D\000\300kE\000 @E\000\000\257D\000\000\377D\000\200\374C\000\000\211D\000\000\026E\000 \237D\000P\014E\000\300\255D\000\000\264D\000\200;E\000`8E\000\200\311D\000\000\033D\000`\256D\000\000\203D\000\200|E\000\340\014E\000\360wE\000`yE\000`\305D\000\200-D\000\000\237D\000\340\254D\000\300\320D\000\000\210D\000\200\351C\000\300\315D\000\000\265D\000\200\355D\000\200\225D\000\000\233D\000\240\327D\0008\201E\000\000\021E\000`\330D\000\340\006E\000\000\026E\000\000\026E\0000\021E\000@\262D\000\200\000D\000`\025E\000@\216D\000\000\226D\000\220nE\000\200\257D\000\200\225D\000\300kD\000@\037E\000\000\304D\000\000\302D\000\000\233D\000\300yD\000`\212D\000\000pD\000\240\350D\000\000\375D\000\3204E\000\340DE\000\330\312E\000 _E\000\000\001E\000\000\353D\000@\256D\000\240\244D\000\250\211E\000`\037E\000@\253D\000\300\332D\000\200\204D\000@`D\000\000\000\000\000\340\232D\000\200\"D\000`\206E\000\000\261D\000\300\315D\000@VD\000\200\204D\000\300MD\000`\266D\000\240\264D\000\000nD\000\000\321D\000@\003E\000\310\265E\000\000\000\000\000\000fD\000\000\226D\000\300sD\000\300\200D\000\020#E\000@gE\000\320+E\000@\215D\000\300bD\000 ~E\000\360\322E\000\000zD\000\200nE\000\250\244E\000\200&E\000\000lD\000\320\233E\000\240:E\000@\265D\000\240\255D\000\000\226D\000\200\315D\000@_D\000\000\226D\000\240*E\000\220\033E\000\200[D\000\200\331D\000\240?E\000 +E\000p\023E\000\340\314D\000\240\323D\000\300\217D\000\340\225D\000@\250D\000\240\272D\000\000\000\000\000\220\035E\000@\261E\000\000HD\000\200\331D\000\260\263E\000\000\242D\000\200\225D\000\000\253D\000\000\014E\000\2006E\000 \262E\000 \200E\000\300<E\000@\304D\000\300\246D\000\020<E\000\240\202E\000\320\000E\000 #E\000\240\301D\000\000\230D\000\200TD\000\020!E\000\000CD\000\350\256E\000\000\372D\000 \305D\000`UE\000\0000D\000\300fE\000\240\327D\000 2E\000\000\277D\000\300\317D\000\000\304D\000 \000E\000@\324D\000\300\264D\000@\224D\000\000\210D\000\200\311D\000\260\007E\000\320\rE\000p\002E\000\000%D\000\300wD\000\300(E\000\000jD\000@\203E\000p\301E\000\300\313D\000\340\267D\000\240\316D\000\200\256D\000@NE\000\240bE\000@\007D\000\370\317E\000\300^D\000\000\341D\000\000\225D\000\200\tE\000`,E\000\2603E\000\300\340D\000\360WE\000`IE\000\240\272D\000\220UE\000\260)E\000\000\210D\000\000\214D\000\000\234D\000\200\234E\000\230\250E\000\270\253E\000@\366D\000\200tD\000\000\310D\000\200\312D\000\300\242D\000\340\234D\000@\024E\000\000\\D\000\200\265D\000@\003E\000\0006D\000 \234D\000\000\341D\000\000 E\000@\203D\000\300nD\000@\201D\000\200pD\000\340cE\000\240\003E\000\240\235D\000\000CE\000\340\030E\0000\230E\000\200\331D\000 \016E\000 \212E\000\200\204D\000\300\250D\000\000\325D\000\240\214E\000\260\034E\0000\000E\000\000\034D\000\240%E\000@\267D\000\220vE\000\200&D\000\300\237D\000\000\253D\000\340\314D\000\350\203E\000\000\231D\000`\rE\000x\307E\000`\333D\000@\221D\000\000\255D\000\000HD\000\000(D\000\200\334D\000\220FE\000\300\327D\000\240`E\000\240mE\000`\241D\000\240\331D\000\320-E\000\3205E\000\200VD\000x\353E\000\220\246E\000\000\365D\000\2009D\000\000!E\000\340\027E\000\200@D\000@\034E\000\240\224D\000\360>E\000 sE\000\020.E\000\220qE\000`8E\000\240\251D\000 \201D\000\300\303D\000\2007D\000P\372E\000\000>D\000\200\235D\000\000\000\000\000\240\317D\000\230\251E\000@\034E\000\000HD\000\240\365E\000\300<E\000\240\327D\000\200TE\000\240\240D\000\000\326D\000\200\307D\000\240\207E\000\200:D\000p\016E\000\000HD\000\260sE\000\360\tE\000\000MD\000\200\277D\000X\203E\000\000zE\000\240EE\000\000kE\000\000\000\000\000 \007E\000@\334D\000P\225E\000\320\032E\000\300\301D\000\260\232E\000\340\255D\000\200TD\000\200\225D\000\000\304D\000\3167G\000`\231D\000\200|D\000`\374D\000@JD\000@PD"
      }
    }
  }
}
node {
  name: "SparseTensor/indices"
  op: "Const"
  attr {
    key: "_output_shapes"
    value {
      list {
        shape {
          dim {
            size: 603
          }
          dim {
            size: 2
          }
        }
      }
    }
  }
  attr {
    key: "dtype"
    value {
      type: DT_INT64
    }
  }
  attr {
    key: "value"
    value {
      tensor {
        dtype: DT_INT64
        tensor_shape {
          dim {
            size: 603
          }
          dim {
            size: 2
          }
        }
        tensor_content: "\000\000\000\000\000\000\000\000\000\000\000\000\000\000\000\000\001\000\000\000\000\000\000\000\000\000\000\000\000\000\000\000\002\000\000\000\000\000\000\000\000\000\000\000\000\000\000\000\003\000\000\000\000\000\000\000\000\000\000\000\000\000\000\000\004\000\000\000\000\000\000\000\000\000\000\000\000\000\000\000\005\000\000\000\000\000\000\000\000\000\000\000\000\000\000\000\006\000\000\000\000\000\000\000\000\000\000\000\000\000\000\000\007\000\000\000\000\000\000\000\000\000\000\000\000\000\000\000\010\000\000\000\000\000\000\000\000\000\000\000\000\000\000\000\t\000\000\000\000\000\000\000\000\000\000\000\000\000\000\000\n\000\000\000\000\000\000\000\000\000\000\000\000\000\000\000\013\000\000\000\000\000\000\000\000\000\000\000\000\000\000\000\014\000\000\000\000\000\000\000\000\000\000\000\000\000\000\000\r\000\000\000\000\000\000\000\000\000\000\000\000\000\000\000\016\000\000\000\000\000\000\000\000\000\000\000\000\000\000\000\017\000\000\000\000\000\000\000\000\000\000\000\000\000\000\000\020\000\000\000\000\000\000\000\000\000\000\000\000\000\000\000\021\000\000\000\000\000\000\000\000\000\000\000\000\000\000\000\022\000\000\000\000\000\000\000\000\000\000\000\000\000\000\000\023\000\000\000\000\000\000\000\000\000\000\000\000\000\000\000\024\000\000\000\000\000\000\000\000\000\000\000\000\000\000\000\025\000\000\000\000\000\000\000\000\000\000\000\000\000\000\000\026\000\000\000\000\000\000\000\000\000\000\000\000\000\000\000\027\000\000\000\000\000\000\000\000\000\000\000\000\000\000\000\030\000\000\000\000\000\000\000\000\000\000\000\000\000\000\000\031\000\000\000\000\000\000\000\000\000\000\000\000\000\000\000\032\000\000\000\000\000\000\000\000\000\000\000\000\000\000\000\033\000\000\000\000\000\000\000\000\000\000\000\000\000\000\000\034\000\000\000\000\000\000\000\000\000\000\000\000\000\000\000\035\000\000\000\000\000\000\000\000\000\000\000\000\000\000\000\036\000\000\000\000\000\000\000\000\000\000\000\000\000\000\000\037\000\000\000\000\000\000\000\000\000\000\000\000\000\000\000 \000\000\000\000\000\000\000\000\000\000\000\000\000\000\000!\000\000\000\000\000\000\000\000\000\000\000\000\000\000\000\"\000\000\000\000\000\000\000\000\000\000\000\000\000\000\000#\000\000\000\000\000\000\000\000\000\000\000\000\000\000\000$\000\000\000\000\000\000\000\000\000\000\000\000\000\000\000%\000\000\000\000\000\000\000\000\000\000\000\000\000\000\000&\000\000\000\000\000\000\000\000\000\000\000\000\000\000\000\'\000\000\000\000\000\000\000\000\000\000\000\000\000\000\000(\000\000\000\000\000\000\000\000\000\000\000\000\000\000\000)\000\000\000\000\000\000\000\000\000\000\000\000\000\000\000*\000\000\000\000\000\000\000\000\000\000\000\000\000\000\000+\000\000\000\000\000\000\000\000\000\000\000\000\000\000\000,\000\000\000\000\000\000\000\000\000\000\000\000\000\000\000-\000\000\000\000\000\000\000\000\000\000\000\000\000\000\000.\000\000\000\000\000\000\000\000\000\000\000\000\000\000\000/\000\000\000\000\000\000\000\000\000\000\000\000\000\000\0000\000\000\000\000\000\000\000\000\000\000\000\000\000\000\0001\000\000\000\000\000\000\000\000\000\000\000\000\000\000\0002\000\000\000\000\000\000\000\000\000\000\000\000\000\000\0003\000\000\000\000\000\000\000\000\000\000\000\000\000\000\0004\000\000\000\000\000\000\000\000\000\000\000\000\000\000\0005\000\000\000\000\000\000\000\000\000\000\000\000\000\000\0006\000\000\000\000\000\000\000\000\000\000\000\000\000\000\0007\000\000\000\000\000\000\000\000\000\000\000\000\000\000\0008\000\000\000\000\000\000\000\000\000\000\000\000\000\000\0009\000\000\000\000\000\000\000\000\000\000\000\000\000\000\000:\000\000\000\000\000\000\000\000\000\000\000\000\000\000\000;\000\000\000\000\000\000\000\000\000\000\000\000\000\000\000<\000\000\000\000\000\000\000\000\000\000\000\000\000\000\000=\000\000\000\000\000\000\000\000\000\000\000\000\000\000\000>\000\000\000\000\000\000\000\000\000\000\000\000\000\000\000?\000\000\000\000\000\000\000\000\000\000\000\000\000\000\000@\000\000\000\000\000\000\000\000\000\000\000\000\000\000\000A\000\000\000\000\000\000\000\000\000\000\000\000\000\000\000B\000\000\000\000\000\000\000\000\000\000\000\000\000\000\000C\000\000\000\000\000\000\000\000\000\000\000\000\000\000\000D\000\000\000\000\000\000\000\000\000\000\000\000\000\000\000E\000\000\000\000\000\000\000\000\000\000\000\000\000\000\000F\000\000\000\000\000\000\000\000\000\000\000\000\000\000\000G\000\000\000\000\000\000\000\000\000\000\000\000\000\000\000H\000\000\000\000\000\000\000\000\000\000\000\000\000\000\000I\000\000\000\000\000\000\000\000\000\000\000\000\000\000\000J\000\000\000\000\000\000\000\000\000\000\000\000\000\000\000K\000\000\000\000\000\000\000\000\000\000\000\000\000\000\000L\000\000\000\000\000\000\000\000\000\000\000\000\000\000\000M\000\000\000\000\000\000\000\000\000\000\000\000\000\000\000N\000\000\000\000\000\000\000\000\000\000\000\000\000\000\000O\000\000\000\000\000\000\000\000\000\000\000\000\000\000\000P\000\000\000\000\000\000\000\000\000\000\000\000\000\000\000Q\000\000\000\000\000\000\000\000\000\000\000\000\000\000\000R\000\000\000\000\000\000\000\000\000\000\000\000\000\000\000S\000\000\000\000\000\000\000\000\000\000\000\000\000\000\000T\000\000\000\000\000\000\000\000\000\000\000\000\000\000\000U\000\000\000\000\000\000\000\000\000\000\000\000\000\000\000V\000\000\000\000\000\000\000\000\000\000\000\000\000\000\000W\000\000\000\000\000\000\000\000\000\000\000\000\000\000\000X\000\000\000\000\000\000\000\000\000\000\000\000\000\000\000Y\000\000\000\000\000\000\000\000\000\000\000\000\000\000\000Z\000\000\000\000\000\000\000\000\000\000\000\000\000\000\000[\000\000\000\000\000\000\000\000\000\000\000\000\000\000\000\\\000\000\000\000\000\000\000\000\000\000\000\000\000\000\000]\000\000\000\000\000\000\000\000\000\000\000\000\000\000\000^\000\000\000\000\000\000\000\000\000\000\000\000\000\000\000_\000\000\000\000\000\000\000\000\000\000\000\000\000\000\000`\000\000\000\000\000\000\000\000\000\000\000\000\000\000\000a\000\000\000\000\000\000\000\000\000\000\000\000\000\000\000b\000\000\000\000\000\000\000\000\000\000\000\000\000\000\000c\000\000\000\000\000\000\000\000\000\000\000\000\000\000\000d\000\000\000\000\000\000\000\000\000\000\000\000\000\000\000e\000\000\000\000\000\000\000\000\000\000\000\000\000\000\000f\000\000\000\000\000\000\000\000\000\000\000\000\000\000\000g\000\000\000\000\000\000\000\000\000\000\000\000\000\000\000h\000\000\000\000\000\000\000\000\000\000\000\000\000\000\000i\000\000\000\000\000\000\000\000\000\000\000\000\000\000\000j\000\000\000\000\000\000\000\000\000\000\000\000\000\000\000k\000\000\000\000\000\000\000\000\000\000\000\000\000\000\000l\000\000\000\000\000\000\000\000\000\000\000\000\000\000\000m\000\000\000\000\000\000\000\000\000\000\000\000\000\000\000n\000\000\000\000\000\000\000\000\000\000\000\000\000\000\000o\000\000\000\000\000\000\000\000\000\000\000\000\000\000\000p\000\000\000\000\000\000\000\000\000\000\000\000\000\000\000q\000\000\000\000\000\000\000\000\000\000\000\000\000\000\000r\000\000\000\000\000\000\000\000\000\000\000\000\000\000\000s\000\000\000\000\000\000\000\000\000\000\000\000\000\000\000t\000\000\000\000\000\000\000\000\000\000\000\000\000\000\000u\000\000\000\000\000\000\000\000\000\000\000\000\000\000\000v\000\000\000\000\000\000\000\000\000\000\000\000\000\000\000w\000\000\000\000\000\000\000\000\000\000\000\000\000\000\000x\000\000\000\000\000\000\000\000\000\000\000\000\000\000\000y\000\000\000\000\000\000\000\000\000\000\000\000\000\000\000z\000\000\000\000\000\000\000\000\000\000\000\000\000\000\000{\000\000\000\000\000\000\000\000\000\000\000\000\000\000\000|\000\000\000\000\000\000\000\000\000\000\000\000\000\000\000}\000\000\000\000\000\000\000\000\000\000\000\000\000\000\000~\000\000\000\000\000\000\000\000\000\000\000\000\000\000\000\177\000\000\000\000\000\000\000\000\000\000\000\000\000\000\000\200\000\000\000\000\000\000\000\000\000\000\000\000\000\000\000\201\000\000\000\000\000\000\000\000\000\000\000\000\000\000\000\202\000\000\000\000\000\000\000\000\000\000\000\000\000\000\000\203\000\000\000\000\000\000\000\000\000\000\000\000\000\000\000\204\000\000\000\000\000\000\000\000\000\000\000\000\000\000\000\205\000\000\000\000\000\000\000\000\000\000\000\000\000\000\000\206\000\000\000\000\000\000\000\000\000\000\000\000\000\000\000\207\000\000\000\000\000\000\000\000\000\000\000\000\000\000\000\210\000\000\000\000\000\000\000\000\000\000\000\000\000\000\000\211\000\000\000\000\000\000\000\000\000\000\000\000\000\000\000\212\000\000\000\000\000\000\000\000\000\000\000\000\000\000\000\213\000\000\000\000\000\000\000\000\000\000\000\000\000\000\000\214\000\000\000\000\000\000\000\000\000\000\000\000\000\000\000\215\000\000\000\000\000\000\000\000\000\000\000\000\000\000\000\216\000\000\000\000\000\000\000\000\000\000\000\000\000\000\000\217\000\000\000\000\000\000\000\000\000\000\000\000\000\000\000\220\000\000\000\000\000\000\000\000\000\000\000\000\000\000\000\221\000\000\000\000\000\000\000\000\000\000\000\000\000\000\000\222\000\000\000\000\000\000\000\000\000\000\000\000\000\000\000\223\000\000\000\000\000\000\000\000\000\000\000\000\000\000\000\224\000\000\000\000\000\000\000\000\000\000\000\000\000\000\000\225\000\000\000\000\000\000\000\000\000\000\000\000\000\000\000\226\000\000\000\000\000\000\000\000\000\000\000\000\000\000\000\227\000\000\000\000\000\000\000\000\000\000\000\000\000\000\000\230\000\000\000\000\000\000\000\000\000\000\000\000\000\000\000\231\000\000\000\000\000\000\000\000\000\000\000\000\000\000\000\232\000\000\000\000\000\000\000\000\000\000\000\000\000\000\000\233\000\000\000\000\000\000\000\000\000\000\000\000\000\000\000\234\000\000\000\000\000\000\000\000\000\000\000\000\000\000\000\235\000\000\000\000\000\000\000\000\000\000\000\000\000\000\000\236\000\000\000\000\000\000\000\000\000\000\000\000\000\000\000\237\000\000\000\000\000\000\000\000\000\000\000\000\000\000\000\240\000\000\000\000\000\000\000\000\000\000\000\000\000\000\000\241\000\000\000\000\000\000\000\000\000\000\000\000\000\000\000\242\000\000\000\000\000\000\000\000\000\000\000\000\000\000\000\243\000\000\000\000\000\000\000\000\000\000\000\000\000\000\000\244\000\000\000\000\000\000\000\000\000\000\000\000\000\000\000\245\000\000\000\000\000\000\000\000\000\000\000\000\000\000\000\246\000\000\000\000\000\000\000\000\000\000\000\000\000\000\000\247\000\000\000\000\000\000\000\000\000\000\000\000\000\000\000\250\000\000\000\000\000\000\000\000\000\000\000\000\000\000\000\251\000\000\000\000\000\000\000\000\000\000\000\000\000\000\000\252\000\000\000\000\000\000\000\000\000\000\000\000\000\000\000\253\000\000\000\000\000\000\000\000\000\000\000\000\000\000\000\254\000\000\000\000\000\000\000\000\000\000\000\000\000\000\000\255\000\000\000\000\000\000\000\000\000\000\000\000\000\000\000\256\000\000\000\000\000\000\000\000\000\000\000\000\000\000\000\257\000\000\000\000\000\000\000\000\000\000\000\000\000\000\000\260\000\000\000\000\000\000\000\000\000\000\000\000\000\000\000\261\000\000\000\000\000\000\000\000\000\000\000\000\000\000\000\262\000\000\000\000\000\000\000\000\000\000\000\000\000\000\000\263\000\000\000\000\000\000\000\000\000\000\000\000\000\000\000\264\000\000\000\000\000\000\000\000\000\000\000\000\000\000\000\265\000\000\000\000\000\000\000\000\000\000\000\000\000\000\000\266\000\000\000\000\000\000\000\000\000\000\000\000\000\000\000\267\000\000\000\000\000\000\000\000\000\000\000\000\000\000\000\270\000\000\000\000\000\000\000\000\000\000\000\000\000\000\000\271\000\000\000\000\000\000\000\000\000\000\000\000\000\000\000\272\000\000\000\000\000\000\000\000\000\000\000\000\000\000\000\273\000\000\000\000\000\000\000\000\000\000\000\000\000\000\000\274\000\000\000\000\000\000\000\000\000\000\000\000\000\000\000\275\000\000\000\000\000\000\000\000\000\000\000\000\000\000\000\276\000\000\000\000\000\000\000\000\000\000\000\000\000\000\000\277\000\000\000\000\000\000\000\000\000\000\000\000\000\000\000\300\000\000\000\000\000\000\000\000\000\000\000\000\000\000\000\301\000\000\000\000\000\000\000\000\000\000\000\000\000\000\000\302\000\000\000\000\000\000\000\000\000\000\000\000\000\000\000\303\000\000\000\000\000\000\000\000\000\000\000\000\000\000\000\304\000\000\000\000\000\000\000\000\000\000\000\000\000\000\000\305\000\000\000\000\000\000\000\000\000\000\000\000\000\000\000\306\000\000\000\000\000\000\000\000\000\000\000\000\000\000\000\307\000\000\000\000\000\000\000\000\000\000\000\000\000\000\000\310\000\000\000\000\000\000\000\000\000\000\000\000\000\000\000\311\000\000\000\000\000\000\000\000\000\000\000\000\000\000\000\312\000\000\000\000\000\000\000\000\000\000\000\000\000\000\000\313\000\000\000\000\000\000\000\000\000\000\000\000\000\000\000\314\000\000\000\000\000\000\000\000\000\000\000\000\000\000\000\315\000\000\000\000\000\000\000\000\000\000\000\000\000\000\000\316\000\000\000\000\000\000\000\000\000\000\000\000\000\000\000\317\000\000\000\000\000\000\000\000\000\000\000\000\000\000\000\320\000\000\000\000\000\000\000\000\000\000\000\000\000\000\000\321\000\000\000\000\000\000\000\000\000\000\000\000\000\000\000\322\000\000\000\000\000\000\000\000\000\000\000\000\000\000\000\323\000\000\000\000\000\000\000\000\000\000\000\000\000\000\000\324\000\000\000\000\000\000\000\000\000\000\000\000\000\000\000\325\000\000\000\000\000\000\000\000\000\000\000\000\000\000\000\326\000\000\000\000\000\000\000\000\000\000\000\000\000\000\000\327\000\000\000\000\000\000\000\000\000\000\000\000\000\000\000\330\000\000\000\000\000\000\000\000\000\000\000\000\000\000\000\331\000\000\000\000\000\000\000\000\000\000\000\000\000\000\000\332\000\000\000\000\000\000\000\000\000\000\000\000\000\000\000\333\000\000\000\000\000\000\000\000\000\000\000\000\000\000\000\334\000\000\000\000\000\000\000\000\000\000\000\000\000\000\000\335\000\000\000\000\000\000\000\000\000\000\000\000\000\000\000\336\000\000\000\000\000\000\000\000\000\000\000\000\000\000\000\337\000\000\000\000\000\000\000\000\000\000\000\000\000\000\000\340\000\000\000\000\000\000\000\000\000\000\000\000\000\000\000\341\000\000\000\000\000\000\000\000\000\000\000\000\000\000\000\342\000\000\000\000\000\000\000\000\000\000\000\000\000\000\000\343\000\000\000\000\000\000\000\000\000\000\000\000\000\000\000\344\000\000\000\000\000\000\000\000\000\000\000\000\000\000\000\345\000\000\000\000\000\000\000\000\000\000\000\000\000\000\000\346\000\000\000\000\000\000\000\000\000\000\000\000\000\000\000\347\000\000\000\000\000\000\000\000\000\000\000\000\000\000\000\350\000\000\000\000\000\000\000\000\000\000\000\000\000\000\000\351\000\000\000\000\000\000\000\000\000\000\000\000\000\000\000\352\000\000\000\000\000\000\000\000\000\000\000\000\000\000\000\353\000\000\000\000\000\000\000\000\000\000\000\000\000\000\000\354\000\000\000\000\000\000\000\000\000\000\000\000\000\000\000\355\000\000\000\000\000\000\000\000\000\000\000\000\000\000\000\356\000\000\000\000\000\000\000\000\000\000\000\000\000\000\000\357\000\000\000\000\000\000\000\000\000\000\000\000\000\000\000\360\000\000\000\000\000\000\000\000\000\000\000\000\000\000\000\361\000\000\000\000\000\000\000\000\000\000\000\000\000\000\000\362\000\000\000\000\000\000\000\000\000\000\000\000\000\000\000\363\000\000\000\000\000\000\000\000\000\000\000\000\000\000\000\364\000\000\000\000\000\000\000\000\000\000\000\000\000\000\000\365\000\000\000\000\000\000\000\000\000\000\000\000\000\000\000\366\000\000\000\000\000\000\000\000\000\000\000\000\000\000\000\367\000\000\000\000\000\000\000\000\000\000\000\000\000\000\000\370\000\000\000\000\000\000\000\000\000\000\000\000\000\000\000\371\000\000\000\000\000\000\000\000\000\000\000\000\000\000\000\372\000\000\000\000\000\000\000\000\000\000\000\000\000\000\000\373\000\000\000\000\000\000\000\000\000\000\000\000\000\000\000\374\000\000\000\000\000\000\000\000\000\000\000\000\000\000\000\375\000\000\000\000\000\000\000\000\000\000\000\000\000\000\000\376\000\000\000\000\000\000\000\000\000\000\000\000\000\000\000\377\000\000\000\000\000\000\000\000\000\000\000\000\000\000\000\000\001\000\000\000\000\000\000\000\000\000\000\000\000\000\000\001\001\000\000\000\000\000\000\000\000\000\000\000\000\000\000\002\001\000\000\000\000\000\000\000\000\000\000\000\000\000\000\003\001\000\000\000\000\000\000\000\000\000\000\000\000\000\000\004\001\000\000\000\000\000\000\000\000\000\000\000\000\000\000\005\001\000\000\000\000\000\000\000\000\000\000\000\000\000\000\006\001\000\000\000\000\000\000\000\000\000\000\000\000\000\000\007\001\000\000\000\000\000\000\000\000\000\000\000\000\000\000\010\001\000\000\000\000\000\000\000\000\000\000\000\000\000\000\t\001\000\000\000\000\000\000\000\000\000\000\000\000\000\000\n\001\000\000\000\000\000\000\000\000\000\000\000\000\000\000\013\001\000\000\000\000\000\000\000\000\000\000\000\000\000\000\014\001\000\000\000\000\000\000\000\000\000\000\000\000\000\000\r\001\000\000\000\000\000\000\000\000\000\000\000\000\000\000\016\001\000\000\000\000\000\000\000\000\000\000\000\000\000\000\017\001\000\000\000\000\000\000\000\000\000\000\000\000\000\000\020\001\000\000\000\000\000\000\000\000\000\000\000\000\000\000\021\001\000\000\000\000\000\000\000\000\000\000\000\000\000\000\022\001\000\000\000\000\000\000\000\000\000\000\000\000\000\000\023\001\000\000\000\000\000\000\000\000\000\000\000\000\000\000\024\001\000\000\000\000\000\000\000\000\000\000\000\000\000\000\025\001\000\000\000\000\000\000\000\000\000\000\000\000\000\000\026\001\000\000\000\000\000\000\000\000\000\000\000\000\000\000\027\001\000\000\000\000\000\000\000\000\000\000\000\000\000\000\030\001\000\000\000\000\000\000\000\000\000\000\000\000\000\000\031\001\000\000\000\000\000\000\000\000\000\000\000\000\000\000\032\001\000\000\000\000\000\000\000\000\000\000\000\000\000\000\033\001\000\000\000\000\000\000\000\000\000\000\000\000\000\000\034\001\000\000\000\000\000\000\000\000\000\000\000\000\000\000\035\001\000\000\000\000\000\000\000\000\000\000\000\000\000\000\036\001\000\000\000\000\000\000\000\000\000\000\000\000\000\000\037\001\000\000\000\000\000\000\000\000\000\000\000\000\000\000 \001\000\000\000\000\000\000\000\000\000\000\000\000\000\000!\001\000\000\000\000\000\000\000\000\000\000\000\000\000\000\"\001\000\000\000\000\000\000\000\000\000\000\000\000\000\000#\001\000\000\000\000\000\000\000\000\000\000\000\000\000\000$\001\000\000\000\000\000\000\000\000\000\000\000\000\000\000%\001\000\000\000\000\000\000\000\000\000\000\000\000\000\000&\001\000\000\000\000\000\000\000\000\000\000\000\000\000\000\'\001\000\000\000\000\000\000\000\000\000\000\000\000\000\000(\001\000\000\000\000\000\000\000\000\000\000\000\000\000\000)\001\000\000\000\000\000\000\000\000\000\000\000\000\000\000*\001\000\000\000\000\000\000\000\000\000\000\000\000\000\000+\001\000\000\000\000\000\000\000\000\000\000\000\000\000\000,\001\000\000\000\000\000\000\000\000\000\000\000\000\000\000-\001\000\000\000\000\000\000\000\000\000\000\000\000\000\000.\001\000\000\000\000\000\000\000\000\000\000\000\000\000\000/\001\000\000\000\000\000\000\000\000\000\000\000\000\000\0000\001\000\000\000\000\000\000\000\000\000\000\000\000\000\0001\001\000\000\000\000\000\000\000\000\000\000\000\000\000\0002\001\000\000\000\000\000\000\000\000\000\000\000\000\000\0003\001\000\000\000\000\000\000\000\000\000\000\000\000\000\0004\001\000\000\000\000\000\000\000\000\000\000\000\000\000\0005\001\000\000\000\000\000\000\000\000\000\000\000\000\000\0006\001\000\000\000\000\000\000\000\000\000\000\000\000\000\0007\001\000\000\000\000\000\000\000\000\000\000\000\000\000\0008\001\000\000\000\000\000\000\000\000\000\000\000\000\000\0009\001\000\000\000\000\000\000\000\000\000\000\000\000\000\000:\001\000\000\000\000\000\000\000\000\000\000\000\000\000\000;\001\000\000\000\000\000\000\000\000\000\000\000\000\000\000<\001\000\000\000\000\000\000\000\000\000\000\000\000\000\000=\001\000\000\000\000\000\000\000\000\000\000\000\000\000\000>\001\000\000\000\000\000\000\000\000\000\000\000\000\000\000?\001\000\000\000\000\000\000\000\000\000\000\000\000\000\000@\001\000\000\000\000\000\000\000\000\000\000\000\000\000\000A\001\000\000\000\000\000\000\000\000\000\000\000\000\000\000B\001\000\000\000\000\000\000\000\000\000\000\000\000\000\000C\001\000\000\000\000\000\000\000\000\000\000\000\000\000\000D\001\000\000\000\000\000\000\000\000\000\000\000\000\000\000E\001\000\000\000\000\000\000\000\000\000\000\000\000\000\000F\001\000\000\000\000\000\000\000\000\000\000\000\000\000\000G\001\000\000\000\000\000\000\000\000\000\000\000\000\000\000H\001\000\000\000\000\000\000\000\000\000\000\000\000\000\000I\001\000\000\000\000\000\000\000\000\000\000\000\000\000\000J\001\000\000\000\000\000\000\000\000\000\000\000\000\000\000K\001\000\000\000\000\000\000\000\000\000\000\000\000\000\000L\001\000\000\000\000\000\000\000\000\000\000\000\000\000\000M\001\000\000\000\000\000\000\000\000\000\000\000\000\000\000N\001\000\000\000\000\000\000\000\000\000\000\000\000\000\000O\001\000\000\000\000\000\000\000\000\000\000\000\000\000\000P\001\000\000\000\000\000\000\000\000\000\000\000\000\000\000Q\001\000\000\000\000\000\000\000\000\000\000\000\000\000\000R\001\000\000\000\000\000\000\000\000\000\000\000\000\000\000S\001\000\000\000\000\000\000\000\000\000\000\000\000\000\000T\001\000\000\000\000\000\000\000\000\000\000\000\000\000\000U\001\000\000\000\000\000\000\000\000\000\000\000\000\000\000V\001\000\000\000\000\000\000\000\000\000\000\000\000\000\000W\001\000\000\000\000\000\000\000\000\000\000\000\000\000\000X\001\000\000\000\000\000\000\000\000\000\000\000\000\000\000Y\001\000\000\000\000\000\000\000\000\000\000\000\000\000\000Z\001\000\000\000\000\000\000\000\000\000\000\000\000\000\000[\001\000\000\000\000\000\000\000\000\000\000\000\000\000\000\\\001\000\000\000\000\000\000\000\000\000\000\000\000\000\000]\001\000\000\000\000\000\000\000\000\000\000\000\000\000\000^\001\000\000\000\000\000\000\000\000\000\000\000\000\000\000_\001\000\000\000\000\000\000\000\000\000\000\000\000\000\000`\001\000\000\000\000\000\000\000\000\000\000\000\000\000\000a\001\000\000\000\000\000\000\000\000\000\000\000\000\000\000b\001\000\000\000\000\000\000\000\000\000\000\000\000\000\000c\001\000\000\000\000\000\000\000\000\000\000\000\000\000\000d\001\000\000\000\000\000\000\000\000\000\000\000\000\000\000e\001\000\000\000\000\000\000\000\000\000\000\000\000\000\000f\001\000\000\000\000\000\000\000\000\000\000\000\000\000\000g\001\000\000\000\000\000\000\000\000\000\000\000\000\000\000h\001\000\000\000\000\000\000\000\000\000\000\000\000\000\000i\001\000\000\000\000\000\000\000\000\000\000\000\000\000\000j\001\000\000\000\000\000\000\000\000\000\000\000\000\000\000k\001\000\000\000\000\000\000\000\000\000\000\000\000\000\000l\001\000\000\000\000\000\000\000\000\000\000\000\000\000\000m\001\000\000\000\000\000\000\000\000\000\000\000\000\000\000n\001\000\000\000\000\000\000\000\000\000\000\000\000\000\000o\001\000\000\000\000\000\000\000\000\000\000\000\000\000\000p\001\000\000\000\000\000\000\000\000\000\000\000\000\000\000q\001\000\000\000\000\000\000\000\000\000\000\000\000\000\000r\001\000\000\000\000\000\000\000\000\000\000\000\000\000\000s\001\000\000\000\000\000\000\000\000\000\000\000\000\000\000t\001\000\000\000\000\000\000\000\000\000\000\000\000\000\000u\001\000\000\000\000\000\000\000\000\000\000\000\000\000\000v\001\000\000\000\000\000\000\000\000\000\000\000\000\000\000w\001\000\000\000\000\000\000\000\000\000\000\000\000\000\000x\001\000\000\000\000\000\000\000\000\000\000\000\000\000\000y\001\000\000\000\000\000\000\000\000\000\000\000\000\000\000z\001\000\000\000\000\000\000\000\000\000\000\000\000\000\000{\001\000\000\000\000\000\000\000\000\000\000\000\000\000\000|\001\000\000\000\000\000\000\000\000\000\000\000\000\000\000}\001\000\000\000\000\000\000\000\000\000\000\000\000\000\000~\001\000\000\000\000\000\000\000\000\000\000\000\000\000\000\177\001\000\000\000\000\000\000\000\000\000\000\000\000\000\000\200\001\000\000\000\000\000\000\000\000\000\000\000\000\000\000\201\001\000\000\000\000\000\000\000\000\000\000\000\000\000\000\202\001\000\000\000\000\000\000\000\000\000\000\000\000\000\000\203\001\000\000\000\000\000\000\000\000\000\000\000\000\000\000\204\001\000\000\000\000\000\000\000\000\000\000\000\000\000\000\205\001\000\000\000\000\000\000\000\000\000\000\000\000\000\000\206\001\000\000\000\000\000\000\000\000\000\000\000\000\000\000\207\001\000\000\000\000\000\000\000\000\000\000\000\000\000\000\210\001\000\000\000\000\000\000\000\000\000\000\000\000\000\000\211\001\000\000\000\000\000\000\000\000\000\000\000\000\000\000\212\001\000\000\000\000\000\000\000\000\000\000\000\000\000\000\213\001\000\000\000\000\000\000\000\000\000\000\000\000\000\000\214\001\000\000\000\000\000\000\000\000\000\000\000\000\000\000\215\001\000\000\000\000\000\000\000\000\000\000\000\000\000\000\216\001\000\000\000\000\000\000\000\000\000\000\000\000\000\000\217\001\000\000\000\000\000\000\000\000\000\000\000\000\000\000\220\001\000\000\000\000\000\000\000\000\000\000\000\000\000\000\221\001\000\000\000\000\000\000\000\000\000\000\000\000\000\000\222\001\000\000\000\000\000\000\000\000\000\000\000\000\000\000\223\001\000\000\000\000\000\000\000\000\000\000\000\000\000\000\224\001\000\000\000\000\000\000\000\000\000\000\000\000\000\000\225\001\000\000\000\000\000\000\000\000\000\000\000\000\000\000\226\001\000\000\000\000\000\000\000\000\000\000\000\000\000\000\227\001\000\000\000\000\000\000\000\000\000\000\000\000\000\000\230\001\000\000\000\000\000\000\000\000\000\000\000\000\000\000\231\001\000\000\000\000\000\000\000\000\000\000\000\000\000\000\232\001\000\000\000\000\000\000\000\000\000\000\000\000\000\000\233\001\000\000\000\000\000\000\000\000\000\000\000\000\000\000\234\001\000\000\000\000\000\000\000\000\000\000\000\000\000\000\235\001\000\000\000\000\000\000\000\000\000\000\000\000\000\000\236\001\000\000\000\000\000\000\000\000\000\000\000\000\000\000\237\001\000\000\000\000\000\000\000\000\000\000\000\000\000\000\240\001\000\000\000\000\000\000\000\000\000\000\000\000\000\000\241\001\000\000\000\000\000\000\000\000\000\000\000\000\000\000\242\001\000\000\000\000\000\000\000\000\000\000\000\000\000\000\243\001\000\000\000\000\000\000\000\000\000\000\000\000\000\000\244\001\000\000\000\000\000\000\000\000\000\000\000\000\000\000\245\001\000\000\000\000\000\000\000\000\000\000\000\000\000\000\246\001\000\000\000\000\000\000\000\000\000\000\000\000\000\000\247\001\000\000\000\000\000\000\000\000\000\000\000\000\000\000\250\001\000\000\000\000\000\000\000\000\000\000\000\000\000\000\251\001\000\000\000\000\000\000\000\000\000\000\000\000\000\000\252\001\000\000\000\000\000\000\000\000\000\000\000\000\000\000\253\001\000\000\000\000\000\000\000\000\000\000\000\000\000\000\254\001\000\000\000\000\000\000\000\000\000\000\000\000\000\000\255\001\000\000\000\000\000\000\000\000\000\000\000\000\000\000\256\001\000\000\000\000\000\000\000\000\000\000\000\000\000\000\257\001\000\000\000\000\000\000\000\000\000\000\000\000\000\000\260\001\000\000\000\000\000\000\000\000\000\000\000\000\000\000\261\001\000\000\000\000\000\000\000\000\000\000\000\000\000\000\262\001\000\000\000\000\000\000\000\000\000\000\000\000\000\000\263\001\000\000\000\000\000\000\000\000\000\000\000\000\000\000\264\001\000\000\000\000\000\000\000\000\000\000\000\000\000\000\265\001\000\000\000\000\000\000\000\000\000\000\000\000\000\000\266\001\000\000\000\000\000\000\000\000\000\000\000\000\000\000\267\001\000\000\000\000\000\000\000\000\000\000\000\000\000\000\270\001\000\000\000\000\000\000\000\000\000\000\000\000\000\000\271\001\000\000\000\000\000\000\000\000\000\000\000\000\000\000\272\001\000\000\000\000\000\000\000\000\000\000\000\000\000\000\273\001\000\000\000\000\000\000\000\000\000\000\000\000\000\000\274\001\000\000\000\000\000\000\000\000\000\000\000\000\000\000\275\001\000\000\000\000\000\000\000\000\000\000\000\000\000\000\276\001\000\000\000\000\000\000\000\000\000\000\000\000\000\000\277\001\000\000\000\000\000\000\000\000\000\000\000\000\000\000\300\001\000\000\000\000\000\000\000\000\000\000\000\000\000\000\301\001\000\000\000\000\000\000\000\000\000\000\000\000\000\000\302\001\000\000\000\000\000\000\000\000\000\000\000\000\000\000\303\001\000\000\000\000\000\000\000\000\000\000\000\000\000\000\304\001\000\000\000\000\000\000\000\000\000\000\000\000\000\000\305\001\000\000\000\000\000\000\000\000\000\000\000\000\000\000\306\001\000\000\000\000\000\000\000\000\000\000\000\000\000\000\307\001\000\000\000\000\000\000\000\000\000\000\000\000\000\000\310\001\000\000\000\000\000\000\000\000\000\000\000\000\000\000\311\001\000\000\000\000\000\000\000\000\000\000\000\000\000\000\312\001\000\000\000\000\000\000\000\000\000\000\000\000\000\000\313\001\000\000\000\000\000\000\000\000\000\000\000\000\000\000\314\001\000\000\000\000\000\000\000\000\000\000\000\000\000\000\315\001\000\000\000\000\000\000\000\000\000\000\000\000\000\000\316\001\000\000\000\000\000\000\000\000\000\000\000\000\000\000\317\001\000\000\000\000\000\000\000\000\000\000\000\000\000\000\320\001\000\000\000\000\000\000\000\000\000\000\000\000\000\000\321\001\000\000\000\000\000\000\000\000\000\000\000\000\000\000\322\001\000\000\000\000\000\000\000\000\000\000\000\000\000\000\323\001\000\000\000\000\000\000\000\000\000\000\000\000\000\000\324\001\000\000\000\000\000\000\000\000\000\000\000\000\000\000\325\001\000\000\000\000\000\000\000\000\000\000\000\000\000\000\326\001\000\000\000\000\000\000\000\000\000\000\000\000\000\000\327\001\000\000\000\000\000\000\000\000\000\000\000\000\000\000\330\001\000\000\000\000\000\000\000\000\000\000\000\000\000\000\331\001\000\000\000\000\000\000\000\000\000\000\000\000\000\000\332\001\000\000\000\000\000\000\000\000\000\000\000\000\000\000\333\001\000\000\000\000\000\000\000\000\000\000\000\000\000\000\334\001\000\000\000\000\000\000\000\000\000\000\000\000\000\000\335\001\000\000\000\000\000\000\000\000\000\000\000\000\000\000\336\001\000\000\000\000\000\000\000\000\000\000\000\000\000\000\337\001\000\000\000\000\000\000\000\000\000\000\000\000\000\000\340\001\000\000\000\000\000\000\000\000\000\000\000\000\000\000\341\001\000\000\000\000\000\000\000\000\000\000\000\000\000\000\342\001\000\000\000\000\000\000\000\000\000\000\000\000\000\000\343\001\000\000\000\000\000\000\000\000\000\000\000\000\000\000\344\001\000\000\000\000\000\000\000\000\000\000\000\000\000\000\345\001\000\000\000\000\000\000\000\000\000\000\000\000\000\000\346\001\000\000\000\000\000\000\000\000\000\000\000\000\000\000\347\001\000\000\000\000\000\000\000\000\000\000\000\000\000\000\350\001\000\000\000\000\000\000\000\000\000\000\000\000\000\000\351\001\000\000\000\000\000\000\000\000\000\000\000\000\000\000\352\001\000\000\000\000\000\000\000\000\000\000\000\000\000\000\353\001\000\000\000\000\000\000\000\000\000\000\000\000\000\000\354\001\000\000\000\000\000\000\000\000\000\000\000\000\000\000\355\001\000\000\000\000\000\000\000\000\000\000\000\000\000\000\356\001\000\000\000\000\000\000\000\000\000\000\000\000\000\000\357\001\000\000\000\000\000\000\000\000\000\000\000\000\000\000\360\001\000\000\000\000\000\000\000\000\000\000\000\000\000\000\361\001\000\000\000\000\000\000\000\000\000\000\000\000\000\000\362\001\000\000\000\000\000\000\000\000\000\000\000\000\000\000\363\001\000\000\000\000\000\000\000\000\000\000\000\000\000\000\364\001\000\000\000\000\000\000\000\000\000\000\000\000\000\000\365\001\000\000\000\000\000\000\000\000\000\000\000\000\000\000\366\001\000\000\000\000\000\000\000\000\000\000\000\000\000\000\367\001\000\000\000\000\000\000\000\000\000\000\000\000\000\000\370\001\000\000\000\000\000\000\000\000\000\000\000\000\000\000\371\001\000\000\000\000\000\000\000\000\000\000\000\000\000\000\372\001\000\000\000\000\000\000\000\000\000\000\000\000\000\000\373\001\000\000\000\000\000\000\000\000\000\000\000\000\000\000\374\001\000\000\000\000\000\000\000\000\000\000\000\000\000\000\375\001\000\000\000\000\000\000\000\000\000\000\000\000\000\000\376\001\000\000\000\000\000\000\000\000\000\000\000\000\000\000\377\001\000\000\000\000\000\000\000\000\000\000\000\000\000\000\000\002\000\000\000\000\000\000\000\000\000\000\000\000\000\000\001\002\000\000\000\000\000\000\000\000\000\000\000\000\000\000\002\002\000\000\000\000\000\000\000\000\000\000\000\000\000\000\003\002\000\000\000\000\000\000\000\000\000\000\000\000\000\000\004\002\000\000\000\000\000\000\000\000\000\000\000\000\000\000\005\002\000\000\000\000\000\000\000\000\000\000\000\000\000\000\006\002\000\000\000\000\000\000\000\000\000\000\000\000\000\000\007\002\000\000\000\000\000\000\000\000\000\000\000\000\000\000\010\002\000\000\000\000\000\000\000\000\000\000\000\000\000\000\t\002\000\000\000\000\000\000\000\000\000\000\000\000\000\000\n\002\000\000\000\000\000\000\000\000\000\000\000\000\000\000\013\002\000\000\000\000\000\000\000\000\000\000\000\000\000\000\014\002\000\000\000\000\000\000\000\000\000\000\000\000\000\000\r\002\000\000\000\000\000\000\000\000\000\000\000\000\000\000\016\002\000\000\000\000\000\000\000\000\000\000\000\000\000\000\017\002\000\000\000\000\000\000\000\000\000\000\000\000\000\000\020\002\000\000\000\000\000\000\000\000\000\000\000\000\000\000\021\002\000\000\000\000\000\000\000\000\000\000\000\000\000\000\022\002\000\000\000\000\000\000\000\000\000\000\000\000\000\000\023\002\000\000\000\000\000\000\000\000\000\000\000\000\000\000\024\002\000\000\000\000\000\000\000\000\000\000\000\000\000\000\025\002\000\000\000\000\000\000\000\000\000\000\000\000\000\000\026\002\000\000\000\000\000\000\000\000\000\000\000\000\000\000\027\002\000\000\000\000\000\000\000\000\000\000\000\000\000\000\030\002\000\000\000\000\000\000\000\000\000\000\000\000\000\000\031\002\000\000\000\000\000\000\000\000\000\000\000\000\000\000\032\002\000\000\000\000\000\000\000\000\000\000\000\000\000\000\033\002\000\000\000\000\000\000\000\000\000\000\000\000\000\000\034\002\000\000\000\000\000\000\000\000\000\000\000\000\000\000\035\002\000\000\000\000\000\000\000\000\000\000\000\000\000\000\036\002\000\000\000\000\000\000\000\000\000\000\000\000\000\000\037\002\000\000\000\000\000\000\000\000\000\000\000\000\000\000 \002\000\000\000\000\000\000\000\000\000\000\000\000\000\000!\002\000\000\000\000\000\000\000\000\000\000\000\000\000\000\"\002\000\000\000\000\000\000\000\000\000\000\000\000\000\000#\002\000\000\000\000\000\000\000\000\000\000\000\000\000\000$\002\000\000\000\000\000\000\000\000\000\000\000\000\000\000%\002\000\000\000\000\000\000\000\000\000\000\000\000\000\000&\002\000\000\000\000\000\000\000\000\000\000\000\000\000\000\'\002\000\000\000\000\000\000\000\000\000\000\000\000\000\000(\002\000\000\000\000\000\000\000\000\000\000\000\000\000\000)\002\000\000\000\000\000\000\000\000\000\000\000\000\000\000*\002\000\000\000\000\000\000\000\000\000\000\000\000\000\000+\002\000\000\000\000\000\000\000\000\000\000\000\000\000\000,\002\000\000\000\000\000\000\000\000\000\000\000\000\000\000-\002\000\000\000\000\000\000\000\000\000\000\000\000\000\000.\002\000\000\000\000\000\000\000\000\000\000\000\000\000\000/\002\000\000\000\000\000\000\000\000\000\000\000\000\000\0000\002\000\000\000\000\000\000\000\000\000\000\000\000\000\0001\002\000\000\000\000\000\000\000\000\000\000\000\000\000\0002\002\000\000\000\000\000\000\000\000\000\000\000\000\000\0003\002\000\000\000\000\000\000\000\000\000\000\000\000\000\0004\002\000\000\000\000\000\000\000\000\000\000\000\000\000\0005\002\000\000\000\000\000\000\000\000\000\000\000\000\000\0006\002\000\000\000\000\000\000\000\000\000\000\000\000\000\0007\002\000\000\000\000\000\000\000\000\000\000\000\000\000\0008\002\000\000\000\000\000\000\000\000\000\000\000\000\000\0009\002\000\000\000\000\000\000\000\000\000\000\000\000\000\000:\002\000\000\000\000\000\000\000\000\000\000\000\000\000\000;\002\000\000\000\000\000\000\000\000\000\000\000\000\000\000<\002\000\000\000\000\000\000\000\000\000\000\000\000\000\000=\002\000\000\000\000\000\000\000\000\000\000\000\000\000\000>\002\000\000\000\000\000\000\000\000\000\000\000\000\000\000?\002\000\000\000\000\000\000\000\000\000\000\000\000\000\000@\002\000\000\000\000\000\000\000\000\000\000\000\000\000\000A\002\000\000\000\000\000\000\000\000\000\000\000\000\000\000B\002\000\000\000\000\000\000\000\000\000\000\000\000\000\000C\002\000\000\000\000\000\000\000\000\000\000\000\000\000\000D\002\000\000\000\000\000\000\000\000\000\000\000\000\000\000E\002\000\000\000\000\000\000\000\000\000\000\000\000\000\000F\002\000\000\000\000\000\000\000\000\000\000\000\000\000\000G\002\000\000\000\000\000\000\000\000\000\000\000\000\000\000H\002\000\000\000\000\000\000\000\000\000\000\000\000\000\000I\002\000\000\000\000\000\000\000\000\000\000\000\000\000\000J\002\000\000\000\000\000\000\000\000\000\000\000\000\000\000K\002\000\000\000\000\000\000\000\000\000\000\000\000\000\000L\002\000\000\000\000\000\000\000\000\000\000\000\000\000\000M\002\000\000\000\000\000\000\000\000\000\000\000\000\000\000N\002\000\000\000\000\000\000\000\000\000\000\000\000\000\000O\002\000\000\000\000\000\000\000\000\000\000\000\000\000\000P\002\000\000\000\000\000\000\000\000\000\000\000\000\000\000Q\002\000\000\000\000\000\000\000\000\000\000\000\000\000\000R\002\000\000\000\000\000\000\000\000\000\000\000\000\000\000S\002\000\000\000\000\000\000\000\000\000\000\000\000\000\000T\002\000\000\000\000\000\000\000\000\000\000\000\000\000\000U\002\000\000\000\000\000\000\000\000\000\000\000\000\000\000V\002\000\000\000\000\000\000\000\000\000\000\000\000\000\000W\002\000\000\000\000\000\000\000\000\000\000\000\000\000\000X\002\000\000\000\000\000\000\000\000\000\000\000\000\000\000Y\002\000\000\000\000\000\000\000\000\000\000\000\000\000\000Z\002\000\000\000\000\000\000\000\000\000\000\000\000\000\000"
      }
    }
  }
}
node {
  name: "SparseTensor/values"
  op: "Const"
  attr {
    key: "_output_shapes"
    value {
      list {
        shape {
          dim {
            size: 603
          }
        }
      }
    }
  }
  attr {
    key: "dtype"
    value {
      type: DT_STRING
    }
  }
  attr {
    key: "value"
    value {
      tensor {
        dtype: DT_STRING
        tensor_shape {
          dim {
            size: 603
          }
        }
        string_val: "94301"
        string_val: "94930"
        string_val: "94301"
        string_val: "94925"
        string_val: "95023"
        string_val: "94939"
        string_val: "94705"
        string_val: "94558"
        string_val: "94122"
        string_val: "94965"
        string_val: "94117"
        string_val: "94108"
        string_val: "94970"
        string_val: "94558"
        string_val: "94133"
        string_val: "94904"
        string_val: "94402"
        string_val: "94121"
        string_val: "94112"
        string_val: "94117"
        string_val: "95023"
        string_val: "94089"
        string_val: "94089"
        string_val: "94118"
        string_val: "95650"
        string_val: "94941"
        string_val: "94925"
        string_val: "94111"
        string_val: "94703"
        string_val: "94949"
        string_val: "94952"
        string_val: "94965"
        string_val: "94131"
        string_val: "94401"
        string_val: "94109"
        string_val: "89431"
        string_val: "94132"
        string_val: "94121"
        string_val: "94112"
        string_val: "94117"
        string_val: "90266"
        string_val: "94102"
        string_val: "94945"
        string_val: "94904"
        string_val: "94558"
        string_val: "94111"
        string_val: "94127"
        string_val: "94066"
        string_val: "94110"
        string_val: "94558"
        string_val: "94118"
        string_val: "94402"
        string_val: "94945"
        string_val: "94563"
        string_val: "94123"
        string_val: "94920"
        string_val: "94066"
        string_val: "94947"
        string_val: "94115"
        string_val: "94107"
        string_val: "94131"
        string_val: "94920"
        string_val: "94158"
        string_val: "94107"
        string_val: "94945"
        string_val: "94703"
        string_val: "94924"
        string_val: "94037"
        string_val: "94112"
        string_val: "94952"
        string_val: "95650"
        string_val: "95650"
        string_val: "94301"
        string_val: "90266"
        string_val: "95476"
        string_val: "94952"
        string_val: "94920"
        string_val: "94131"
        string_val: "94301"
        string_val: "94904"
        string_val: "94089"
        string_val: "94928"
        string_val: "94947"
        string_val: "94111"
        string_val: "94929"
        string_val: "94920"
        string_val: "89431"
        string_val: "94973"
        string_val: "94089"
        string_val: "94102"
        string_val: "94947"
        string_val: "94558"
        string_val: "94705"
        string_val: "89431"
        string_val: "94021"
        string_val: "94116"
        string_val: "94122"
        string_val: "94402"
        string_val: "94112"
        string_val: "94404"
        string_val: "94949"
        string_val: "94123"
        string_val: "94949"
        string_val: "94102"
        string_val: "94105"
        string_val: "95650"
        string_val: "94121"
        string_val: "94928"
        string_val: "94114"
        string_val: "94114"
        string_val: "94602"
        string_val: "94103"
        string_val: "94301"
        string_val: "94924"
        string_val: "94123"
        string_val: "90266"
        string_val: "90266"
        string_val: "94924"
        string_val: "94563"
        string_val: "94957"
        string_val: "94117"
        string_val: "94103"
        string_val: "94118"
        string_val: "94089"
        string_val: "94965"
        string_val: "94920"
        string_val: "94112"
        string_val: "94116"
        string_val: "94939"
        string_val: "94923"
        string_val: "94558"
        string_val: "94971"
        string_val: "95476"
        string_val: "94105"
        string_val: "94937"
        string_val: "94402"
        string_val: "95476"
        string_val: "95476"
        string_val: "94110"
        string_val: "94066"
        string_val: "94929"
        string_val: "94132"
        string_val: "94089"
        string_val: "94403"
        string_val: "89431"
        string_val: "94402"
        string_val: "95476"
        string_val: "94403"
        string_val: "94928"
        string_val: "94132"
        string_val: "94965"
        string_val: "94928"
        string_val: "94960"
        string_val: "94118"
        string_val: "94401"
        string_val: "94111"
        string_val: "94089"
        string_val: "94705"
        string_val: "94904"
        string_val: "94158"
        string_val: "94089"
        string_val: "94404"
        string_val: "94404"
        string_val: "95476"
        string_val: "94952"
        string_val: "94705"
        string_val: "94925"
        string_val: "95650"
        string_val: "94124"
        string_val: "94105"
        string_val: "94109"
        string_val: "94965"
        string_val: "94123"
        string_val: "94954"
        string_val: "94920"
        string_val: "90266"
        string_val: "94558"
        string_val: "94103"
        string_val: "94114"
        string_val: "94102"
        string_val: "94089"
        string_val: "94954"
        string_val: "94928"
        string_val: "94928"
        string_val: "94089"
        string_val: "95476"
        string_val: "94131"
        string_val: "94122"
        string_val: "94102"
        string_val: "94402"
        string_val: "90266"
        string_val: "94108"
        string_val: "94132"
        string_val: "94105"
        string_val: "94970"
        string_val: "94114"
        string_val: "95012"
        string_val: "94123"
        string_val: "94103"
        string_val: "95476"
        string_val: "94401"
        string_val: "94402"
        string_val: "94089"
        string_val: "89431"
        string_val: "94404"
        string_val: "94121"
        string_val: "94127"
        string_val: "94403"
        string_val: "94089"
        string_val: "94925"
        string_val: "94127"
        string_val: "94117"
        string_val: "94080"
        string_val: "94123"
        string_val: "90266"
        string_val: "94103"
        string_val: "94117"
        string_val: "94103"
        string_val: "94108"
        string_val: "94301"
        string_val: "94401"
        string_val: "94105"
        string_val: "94109"
        string_val: "94110"
        string_val: "94957"
        string_val: "94131"
        string_val: "94703"
        string_val: "94133"
        string_val: "94904"
        string_val: "94965"
        string_val: "95476"
        string_val: "94122"
        string_val: "94020"
        string_val: "94920"
        string_val: "94089"
        string_val: "94903"
        string_val: "94037"
        string_val: "94133"
        string_val: "94941"
        string_val: "94158"
        string_val: "94109"
        string_val: "94602"
        string_val: "89431"
        string_val: "94303"
        string_val: "94928"
        string_val: "94563"
        string_val: "94928"
        string_val: "94118"
        string_val: "94941"
        string_val: "94121"
        string_val: "94110"
        string_val: "89431"
        string_val: "94957"
        string_val: "94928"
        string_val: "94123"
        string_val: "95023"
        string_val: "94563"
        string_val: "94937"
        string_val: "94102"
        string_val: "94563"
        string_val: "94089"
        string_val: "94949"
        string_val: "94904"
        string_val: "94941"
        string_val: "94110"
        string_val: "94945"
        string_val: "94903"
        string_val: "94924"
        string_val: "95476"
        string_val: "94903"
        string_val: "94965"
        string_val: "95472"
        string_val: "94952"
        string_val: "94403"
        string_val: "94965"
        string_val: "95476"
        string_val: "94404"
        string_val: "94965"
        string_val: "94123"
        string_val: "94303"
        string_val: "94105"
        string_val: "94402"
        string_val: "94401"
        string_val: "94903"
        string_val: "94037"
        string_val: "94703"
        string_val: "94403"
        string_val: "94903"
        string_val: "94080"
        string_val: "94403"
        string_val: "94957"
        string_val: "94945"
        string_val: "94703"
        string_val: "94404"
        string_val: "94103"
        string_val: "94131"
        string_val: "94080"
        string_val: "94114"
        string_val: "94133"
        string_val: "90266"
        string_val: "94131"
        string_val: "94124"
        string_val: "94158"
        string_val: "94109"
        string_val: "94108"
        string_val: "94102"
        string_val: "95476"
        string_val: "94089"
        string_val: "94123"
        string_val: "89431"
        string_val: "94105"
        string_val: "94104"
        string_val: "90266"
        string_val: "94402"
        string_val: "94102"
        string_val: "94118"
        string_val: "95023"
        string_val: "94121"
        string_val: "94114"
        string_val: "94952"
        string_val: "94107"
        string_val: "94402"
        string_val: "94103"
        string_val: "94103"
        string_val: "90266"
        string_val: "94970"
        string_val: "89431"
        string_val: "94158"
        string_val: "94127"
        string_val: "94303"
        string_val: "94920"
        string_val: "94403"
        string_val: "94960"
        string_val: "94109"
        string_val: "95476"
        string_val: "94110"
        string_val: "94558"
        string_val: "94903"
        string_val: "90266"
        string_val: "94920"
        string_val: "94904"
        string_val: "94563"
        string_val: "94941"
        string_val: "94127"
        string_val: "94105"
        string_val: "94904"
        string_val: "95023"
        string_val: "90266"
        string_val: "94121"
        string_val: "94080"
        string_val: "94107"
        string_val: "94924"
        string_val: "94131"
        string_val: "94131"
        string_val: "94117"
        string_val: "94132"
        string_val: "95476"
        string_val: "90266"
        string_val: "94930"
        string_val: "94602"
        string_val: "94158"
        string_val: "94131"
        string_val: "94104"
        string_val: "94116"
        string_val: "94937"
        string_val: "94563"
        string_val: "94705"
        string_val: "94080"
        string_val: "94404"
        string_val: "94404"
        string_val: "94401"
        string_val: "94965"
        string_val: "94108"
        string_val: "94949"
        string_val: "95476"
        string_val: "94109"
        string_val: "94080"
        string_val: "94117"
        string_val: "94134"
        string_val: "94114"
        string_val: "94946"
        string_val: "94110"
        string_val: "94904"
        string_val: "94563"
        string_val: "94124"
        string_val: "94970"
        string_val: "94116"
        string_val: "95650"
        string_val: "94903"
        string_val: "94960"
        string_val: "94965"
        string_val: "95650"
        string_val: "94923"
        string_val: "94158"
        string_val: "94066"
        string_val: "94103"
        string_val: "94118"
        string_val: "94952"
        string_val: "94158"
        string_val: "94558"
        string_val: "94303"
        string_val: "94110"
        string_val: "94558"
        string_val: "94123"
        string_val: "94121"
        string_val: "94703"
        string_val: "94930"
        string_val: "90266"
        string_val: "94089"
        string_val: "90266"
        string_val: "94904"
        string_val: "89431"
        string_val: "94127"
        string_val: "94404"
        string_val: "94118"
        string_val: "94118"
        string_val: "94118"
        string_val: "94952"
        string_val: "94080"
        string_val: "94102"
        string_val: "94127"
        string_val: "94121"
        string_val: "94945"
        string_val: "94923"
        string_val: "94970"
        string_val: "94965"
        string_val: "94903"
        string_val: "94301"
        string_val: "94402"
        string_val: "94117"
        string_val: "94402"
        string_val: "94952"
        string_val: "94939"
        string_val: "94301"
        string_val: "94109"
        string_val: "94558"
        string_val: "94117"
        string_val: "94949"
        string_val: "94920"
        string_val: "95476"
        string_val: "94121"
        string_val: "94563"
        string_val: "94112"
        string_val: "94945"
        string_val: "94602"
        string_val: "94945"
        string_val: "94903"
        string_val: "90266"
        string_val: "94114"
        string_val: "94903"
        string_val: "94937"
        string_val: "94404"
        string_val: "94111"
        string_val: "90266"
        string_val: "94117"
        string_val: "89431"
        string_val: "94111"
        string_val: "94947"
        string_val: "94118"
        string_val: "94920"
        string_val: "94965"
        string_val: "94109"
        string_val: "94920"
        string_val: "94102"
        string_val: "94402"
        string_val: "94116"
        string_val: "94102"
        string_val: "94563"
        string_val: "94116"
        string_val: "94089"
        string_val: "94957"
        string_val: "94703"
        string_val: "94123"
        string_val: "94956"
        string_val: "94301"
        string_val: "94602"
        string_val: "94941"
        string_val: "95650"
        string_val: "90266"
        string_val: "94920"
        string_val: "94102"
        string_val: "94558"
        string_val: "94133"
        string_val: "95650"
        string_val: "94112"
        string_val: "94952"
        string_val: "94124"
        string_val: "94558"
        string_val: "94066"
        string_val: "94925"
        string_val: "90266"
        string_val: "94904"
        string_val: "94131"
        string_val: "94112"
        string_val: "94403"
        string_val: "94132"
        string_val: "94965"
        string_val: "94928"
        string_val: "94939"
        string_val: "94123"
        string_val: "94929"
        string_val: "94105"
        string_val: "94118"
        string_val: "94965"
        string_val: "94123"
        string_val: "94930"
        string_val: "94941"
        string_val: "95476"
        string_val: "94404"
        string_val: "94403"
        string_val: "94947"
        string_val: "94123"
        string_val: "94901"
        string_val: "95446"
        string_val: "94558"
        string_val: "94123"
        string_val: "94133"
        string_val: "94123"
        string_val: "94102"
        string_val: "94402"
        string_val: "94089"
        string_val: "94303"
        string_val: "94123"
        string_val: "89431"
        string_val: "94970"
        string_val: "94127"
        string_val: "90266"
        string_val: "94928"
        string_val: "94103"
        string_val: "94105"
        string_val: "94102"
        string_val: "95476"
        string_val: "95023"
        string_val: "94089"
        string_val: "94103"
        string_val: "94110"
        string_val: "94941"
        string_val: "94118"
        string_val: "94901"
        string_val: "94303"
        string_val: "94928"
        string_val: "94920"
        string_val: "94301"
        string_val: "94104"
        string_val: "94108"
        string_val: "94103"
        string_val: "94928"
        string_val: "94303"
        string_val: "94122"
        string_val: "90266"
        string_val: "94558"
        string_val: "94133"
        string_val: "94970"
        string_val: "94904"
        string_val: "94941"
        string_val: "94080"
        string_val: "90266"
        string_val: "94089"
        string_val: "95446"
        string_val: "95650"
        string_val: "95476"
        string_val: "94110"
        string_val: "94133"
        string_val: "94117"
        string_val: "94705"
        string_val: "94401"
        string_val: "89431"
        string_val: "94118"
        string_val: "94957"
        string_val: "94925"
        string_val: "94114"
        string_val: "94121"
        string_val: "94941"
        string_val: "94928"
        string_val: "94558"
        string_val: "94404"
        string_val: "94941"
        string_val: "94116"
        string_val: "94118"
        string_val: "94103"
        string_val: "94903"
        string_val: "94111"
        string_val: "94563"
        string_val: "94965"
        string_val: "90266"
        string_val: "95650"
        string_val: "89431"
        string_val: "94602"
        string_val: "94301"
        string_val: "94965"
        string_val: "94924"
        string_val: "94303"
        string_val: "94108"
        string_val: "94158"
        string_val: "94903"
        string_val: "89431"
        string_val: "94089"
        string_val: "94102"
        string_val: "95476"
        string_val: "94303"
        string_val: "94558"
        string_val: "94105"
        string_val: "94103"
      }
    }
  }
}
node {
  name: "SparseTensor/shape"
  op: "Const"
  attr {
    key: "_output_shapes"
    value {
      list {
        shape {
          dim {
            size: 2
          }
        }
      }
    }
  }
  attr {
    key: "dtype"
    value {
      type: DT_INT64
    }
  }
  attr {
    key: "value"
    value {
      tensor {
        dtype: DT_INT64
        tensor_shape {
          dim {
            size: 2
          }
        }
        tensor_content: "[\002\000\000\000\000\000\000\001\000\000\000\000\000\000\000"
      }
    }
  }
}
node {
  name: "SparseTensor_1/indices"
  op: "Const"
  attr {
    key: "_output_shapes"
    value {
      list {
        shape {
          dim {
            size: 603
          }
          dim {
            size: 2
          }
        }
      }
    }
  }
  attr {
    key: "dtype"
    value {
      type: DT_INT64
    }
  }
  attr {
    key: "value"
    value {
      tensor {
        dtype: DT_INT64
        tensor_shape {
          dim {
            size: 603
          }
          dim {
            size: 2
          }
        }
