node {
  name: "global_step"
  op: "Variable"
  attr {
    key: "_output_shapes"
    value {
      list {
        shape {
        }
      }
    }
  }
  attr {
    key: "container"
    value {
      s: ""
    }
  }
  attr {
    key: "dtype"
    value {
      type: DT_INT64
    }
  }
  attr {
    key: "shape"
    value {
      shape {
      }
    }
  }
  attr {
    key: "shared_name"
    value {
      s: ""
    }
  }
}
node {
  name: "global_step/Initializer/zeros"
  op: "Const"
  attr {
    key: "_class"
    value {
      list {
        s: "loc:@global_step"
      }
    }
  }
  attr {
    key: "_output_shapes"
    value {
      list {
        shape {
        }
      }
    }
  }
  attr {
    key: "dtype"
    value {
      type: DT_INT64
    }
  }
  attr {
    key: "value"
    value {
      tensor {
        dtype: DT_INT64
        tensor_shape {
        }
        int64_val: 0
      }
    }
  }
}
node {
  name: "global_step/Assign"
  op: "Assign"
  input: "global_step"
  input: "global_step/Initializer/zeros"
  attr {
    key: "T"
    value {
      type: DT_INT64
    }
  }
  attr {
    key: "_class"
    value {
      list {
        s: "loc:@global_step"
      }
    }
  }
  attr {
    key: "_output_shapes"
    value {
      list {
        shape {
        }
      }
    }
  }
  attr {
    key: "use_locking"
    value {
      b: true
    }
  }
  attr {
    key: "validate_shape"
    value {
      b: true
    }
  }
}
node {
  name: "global_step/read"
  op: "Identity"
  input: "global_step"
  attr {
    key: "T"
    value {
      type: DT_INT64
    }
  }
  attr {
    key: "_class"
    value {
      list {
        s: "loc:@global_step"
      }
    }
  }
  attr {
    key: "_output_shapes"
    value {
      list {
        shape {
        }
      }
    }
  }
}
node {
  name: "Const"
  op: "Const"
  attr {
    key: "_output_shapes"
    value {
      list {
        shape {
          dim {
            size: 603
          }
        }
      }
    }
  }
  attr {
    key: "dtype"
    value {
      type: DT_FLOAT
    }
  }
  attr {
    key: "value"
    value {
      tensor {
        dtype: DT_FLOAT
        tensor_shape {
          dim {
            size: 603
          }
        }
        tensor_content: "\000\000\000@\000\000\240@\000\000\240@\000\000\000@\000\000\200@\000\000\000@\000\000\000@\000\000\000@\000\000\200@\000\000\000@\000\000@@\000\000@@\000\000\000@\000\000\200@\000\000@@\000\000\340@\000\000\000@\000\000\000@\000\000\000@\000\000\000@\000\000\000@\000\000\240@\000\000\200@\000\000\200@\000\000\000@\000\000@@\000\000\200@\000\000\000@\000\000\000@\000\000@@\000\000\200@\000\000@@\000\000\240@\000\000\200@\000\000\000@\000\000\000@\000\000\000@\000\000\200@\000\000@@\000\000\000@\000\000\000@\000\000\000@\000\000\000@\000\000\200@\000\000@@\000\000\200@\000\000\200?\000\000\000@\000\000@@\000\000\000@\000\000\000\000\000\000\200@\000\000@@\000\000\000@\000\000\240@\000\000\200?\000\000\240@\000\000\000@\000\000\240@\000\000\000@\000\000@@\000\000\000@\000\000\000@\000\000\000\000\000\000@@\000\000\200@\000\000\200?\000\000@@\000\000\000@\000\000@@\000\000\000@\000\000\240@\000\000\200@\000\000\000@\000\000\000@\000\000\240@\000\000\000@\000\000\000\000\000\000\000@\000\000\000A\000\000\200@\000\000@@\000\000@@\000\000\000@\000\000\000@\000\000\000\000\000\000\200@\000\000\340@\000\000\000@\000\000@@\000\000\000\000\000\000\200@\000\000\200@\000\000\000@\000\000\000@\000\000\300@\000\000\200?\000\000\000@\000\000\200@\000\000\200?\000\000\000\000\000\000@@\000\000\000\000\000\000@@\000\000@@\000\000\200@\000\000@@\000\000@@\000\000@@\000\000\000@\000\000\000@\000\000\200@\000\000\000@\000\000\200?\000\000\000\000\000\000\200@\000\000@@\000\000@@\000\000@@\000\000@@\000\000\200@\000\000\200@\000\000\200@\000\000\200@\000\000\020A\000\000\200@\000\000\200@\000\000\240@\000\000\200?\000\000\000@\000\000\200@\000\000\000@\000\000\200@\000\000@@\000\000\200@\000\000\300@\000\000\200@\000\000\000@\000\000\200?\000\000\240@\000\000\200@\000\000\200?\000\000\000@\000\000@@\000\000@@\000\000\200@\000\000\240@\000\000@@\000\000\000@\000\000\000@\000\000@@\000\000\000@\000\000\200@\000\000@@\000\000\200@\000\000\200?\000\000\000@\000\000\000@\000\000@@\000\000\340@\000\000\000@\000\000\000@\000\000\200@\000\000\200@\000\000@@\000\000\200?\000\000\200?\000\000\200@\000\000\000\000\000\000@@\000\000@@\000\000\000\000\000\000@@\000\000\000@\000\000@@\000\000@@\000\000\000@\000\000\000\000\000\000\200@\000\000\200@\000\000\240@\000\000@@\000\000\240@\000\000@@\000\000\000@\000\000@@\000\000@@\000\000\200@\000\000@@\000\000\200@\000\000\240@\000\000@@\000\000@@\000\000\000@\000\000\000@\000\000@@\000\000\200?\000\000\000@\000\000\000\000\000\000@@\000\000\200?\000\000\000\000\000\000@@\000\000\000\000\000\000\200@\000\000\000\000\000\000@@\000\000@@\000\000@@\000\000\000@\000\000\000@\000\000@@\000\000\200@\000\000\000@\000\000\000@\000\000@@\000\000\200?\000\000@@\000\000\000@\000\000\200@\000\000\200?\000\000\000@\000\000\240@\000\000\000@\000\000\000@\000\000\000@\000\000\200?\000\000\240@\000\000\000@\000\000@@\000\000\200@\000\000@@\000\000@@\000\000\000@\000\000\000@\000\000@@\000\000\000@\000\000\240@\000\000\000@\000\000@@\000\000\000@\000\000\000@\000\000\200@\000\000\240@\000\000\200@\000\000\000@\000\000@@\000\000\200@\000\000\200@\000\000\200@\000\000\200?\000\000\000\000\000\000@@\000\000\240@\000\000\200@\000\000@@\000\000\200@\000\000\300@\000\000@@\000\000\000@\000\000\200?\000\000\000\000\000\000\200@\000\000\200@\000\000\000\000\000\000@@\000\000\200@\000\000\000@\000\000\200@\000\000\000@\000\000\200@\000\000\200?\000\000@@\000\000\000@\000\000\000@\000\000\200@\000\000\240@\000\000@@\000\000\200@\000\000\200@\000\000@@\000\000\300@\000\000\000\000\000\000\200@\000\000\000\000\000\000\200@\000\000@@\000\000@@\000\000@@\000\000\200@\000\000\200@\000\000\200?\000\000@@\000\000\200@\000\000\240@\000\000@@\000\000\000@\000\000@@\000\000\000@\000\000\200@\000\000\000@\000\000\000@\000\000\000\000\000\000\200@\000\000@@\000\000\000@\000\000@@\000\000@@\000\000@@\000\000@@\000\000@@\000\000\240@\000\000\000@\000\000@@\000\000\000\000\000\000\000@\000\000\000@\000\000\200@\000\000@@\000\000@@\000\000@@\000\000\020A\000\000\000@\000\000\200@\000\000\000@\000\000\200?\000\000\200?\000\000\000\000\000\000\200@\000\000\200?\000\000@@\000\000@@\000\000@@\000\000@@\000\000\300@\000\000\200@\000\000\000@\000\000\000@\000\000\200@\000\000\000@\000\000@@\000\000\200@\000\000@@\000\000@@\000\000\000@\000\000pA\000\000\300@\000\000\300@\000\000\200@\000\000@@\000\000@@\000\000\200?\000\000\200@\000\000\000@\000\000@@\000\000@@\000\000\000@\000\000\000@\000\000@@\000\000\200@\000\000@@\000\000@@\000\000\000@\000\000\000@\000\000\200@\000\000@@\000\000\000@\000\000\200@\000\000\200@\000\000\200@\000\000\240@\000\000@@\000\000\000@\000\000\240@\000\000\200@\000\000\000@\000\000\200@\000\000\340@\000\000\200@\000\000\000@\000\000\200?\000\000\000@\000\000\200@\000\000\300@\000\000\200?\000\000\200@\000\000\000@\000\000\000@\000\000@@\000\000\000@\000\000\000\000\000\000\000@\000\000\000@\000\000@@\000\000\300@\000\000\000@\000\000@@\000\000@@\000\000\000@\000\000\000@\000\000\200@\000\000@@\000\000\000@\000\000\200@\000\000\000\000\000\000\240@\000\000\200@\000\000\000@\000\000\000\000\000\000\000@\000\000\200?\000\000@@\000\000\200@\000\000\000@\000\000\000@\000\000@@\000\000\200@\000\000\200@\000\000\000@\000\000\000@\000\000\240@\000\000\200@\000\000@@\000\000@@\000\000\240@\000\000\340@\000\000\000@\000\000@@\000\000@@\000\000\000@\000\000\200@\000\000\240@\000\000\200@\000\000\000@\000\000\240@\000\000\000\000\000\000\240@\000\000\000@\000\000\240@\000\000\240@\000\000\300@\000\000\200?\000\000\000@\000\000@@\000\000\200@\000\000@@\000\000@@\000\000@@\000\000\200@\000\000@@\000\000\200@\000\000\200?\000\000\200?\000\000\240@\000\000\000@\000\000\000@\000\000\000@\000\000@@\000\000\340@\000\000\240@\000\000\200@\000\000\000@\000\000@@\000\000\200@\000\000\200@\000\000\200?\000\000\240@\000\000\200@\000\000\240@\000\000\200@\000\000@@\000\000\000\000\000\000\000\000\000\000\000@\000\000\000\000\000\000\200@\000\000\200@\000\000\200@\000\000@@\000\000\240@\000\000\000@\000\000\200@\000\000@@\000\000\000@\000\000@@\000\000@@\000\000\200?\000\000\200?\000\000@@\000\000\200@\000\000\200@\000\000\000@\000\000@@\000\000\200@\000\000\000@\000\000\200?\000\000\200@\000\000\300@\000\000\200@\000\000\200@\000\000\000@\000\000@@\000\000\300@\000\000\000@\000\000\000@\000\000@@\000\000\200?\000\000\200@\000\000\200@\000\000\000\000\000\000\000\000\000\000\000@\000\000\200?\000\000\240@\000\000@@\000\000@@\000\000@@\000\000\000@\000\000\000@\000\000\200?\000\000\200@\000\000\000@\000\000\200?\000\000@@\000\000\240@\000\000\240@\000\000@@\000\000@@\000\000\340@\000\000\000\000\000\000@@\000\000\200?\000\000\000@\000\000\200@\000\000\200?\000\000\000@\000\000@@\000\000\000@\000\000\000@\000\000@@\000\000@@\000\000\240@\000\000\000@\000\000@@\000\000\020A\000\000\000@\000\000\200@\000\000\000@\000\000\000@\000\000\200@\000\000\200@\000\000\240@\000\000\200?\000\000\200@\000\000@@\000\000\000@\000\000@@\000\000@@\000\000\000@\000\000\200?\000\000@@\000\000@@\000\000@@\000\000\000@\000\000\200@\000\000@@\000\000\000@\000\000\200?\000\000\000@\000\000\200@\000\000\000\000\000\000\240@\000\000@@\000\000\000@\000\000\200@\000\000\000\000\000\000@@\000\000\000@\000\000@@\000\000@@\000\000\000@\000\000\200@\000\000\200?\000\000\000@\000\000\000@\000\000\200@\000\000\240@\000\000\000\000\000\000@@\000\000\000@\000\000\300@\000\000\200?\000\000\200@\000\000@@\000\000\200@\000\000@@\000\000\200@\000\000\240@\000\000\200@\000\000@@\000\000\000@\000\000\000@\000\000@@"
      }
    }
  }
}
node {
  name: "Const_1"
  op: "Const"
  attr {
    key: "_output_shapes"
    value {
      list {
        shape {
          dim {
            size: 603
          }
        }
      }
    }
  }
  attr {
    key: "dtype"
    value {
      type: DT_FLOAT
    }
  }
  attr {
    key: "value"
    value {
      tensor {
        dtype: DT_FLOAT
        tensor_shape {
          dim {
            size: 603
          }
        }
        tensor_content: "\000\000\000@\000\000\240@\000\000\200@\000\000\200?\000\000@@\000\000\000@\000\000\200?\000\000\200?\000\000\000@\000\000\000@\000\000\200?\000\000\200@\000\000\200?\000\000@@\000\000@@\000\000\240@\000\000\000@\000\000\000@\000\000\240@\000\000\000@\000\000\000@\000\000`@\000\000@@\000\000@@\000\000\000@\000\000\000@\000\000@@\000\000\000@\000\000\000@\000\000\000@\000\000\300@\000\000\000@\000\000\240@\000\000\000@\000\000\200?\000\000\000@\000\000\000@\000\000\000@\000\000@@\000\000\000@\000\000\000@\000\000\000@\000\000\000@\000\000@@\000\000\000@\000\000`@\000\000\200?\000\000\000@\000\000\000@\000\000\200?\000\000\000\000\000\000\240@\000\000\000@\000\000\200?\000\000\200@\000\000\200?\000\000\200@\000\000\000@\000\000\240@\000\000\200?\000\000@@\000\000\000@\000\000\000@\000\000\000\000\000\000@@\000\000@@\000\000\200?\000\000\200@\000\000\200?\000\000\200@\000\000\000@\000\000\200@\000\000@@\000\000\200?\000\000\020@\000\000\340@\000\000\200?\000\000\000@\000\000\200?\000\000\340@\000\000@@\000\000\000@\000\000\000@\000\000\000@\000\000\000@\000\000\000\000\000\000`@\000\000 A\000\000\000@\000\000@@\000\000\000\000\000\000\200@\000\000@@\000\000\000@\000\000\000@\000\000\020A\000\000\200?\000\000\000@\000\000\000@\000\000\200?\000\000\000\000\000\000@@\000\000\000\000\000\000@@\000\000\000@\000\000@@\000\000\000@\000\000\000@\000\000\000@\000\000\000@\000\000\000@\000\000\000@\000\000\000@\000\000\200?\000\000\000\000\000\000`@\000\000@@\000\000\200?\000\000\000@\000\000\200@\000\000`@\000\000\000@\000\000\200@\000\000@@\000\000\340@\000\000\240@\000\000@@\000\000@@\000\000\200?\000\000\000@\000\000@@\000\000\000@\000\000\200@\000\000\200?\000\000\000@\000\000\240@\000\000\200@\000\000\000@\000\000\200?\000\000\200@\000\000\200?\000\000\000@\000\000\200?\000\000\000@\000\000@@\000\000\200@\000\000\200@\000\000\000@\000\000\000@\000\000\200?\000\000@@\000\000\000@\000\000\240@\000\000\000@\000\000@@\000\000\200?\000\000\000@\000\000\000@\000\000@@\000\000\320@\000\000\000@\000\000\000@\000\000\300@\000\000@@\000\000@@\000\000\200?\000\000\200?\000\000\240@\000\000\000\000\000\000\200?\000\000\000@\000\000\000\000\000\000\000@\000\000\000@\000\000\000@\000\000\200?\000\000\200?\000\000\000\000\000\000@@\000\000\200@\000\000\220@\000\000\000@\000\000@@\000\000@@\000\000\200?\000\000\000@\000\000\000@\000\000\000@\000\000\200@\000\000@@\000\000@@\000\000\000@\000\000\000@\000\000\200?\000\000\200?\000\000\200@\000\000\200?\000\000@@\000\000\200?\000\000\200@\000\000\200?\000\000\200?\000\000\000@\000\000\000\000\000\000\200@\000\000\000\000\000\000@@\000\000\000@\000\000\200?\000\000\000@\000\000\000@\000\000@@\000\000\240@\000\000\000@\000\000\200?\000\000@@\000\000\200?\000\000\240@\000\000\000@\000\000\000@\000\000\200?\000\000\200?\000\000\260@\000\000@@\000\000\000@\000\000\000@\000\000\200?\000\000\240@\000\000\000@\000\000\000@\000\000@@\000\000\000@\000\000\000@\000\000\200?\000\000\000@\000\000@@\000\000\000@\000\000\240@\000\000 @\000\000\000@\000\000\000@\000\000\000@\000\000@@\000\000\260@\000\000@@\000\000\000\000\000\000@@\000\000@@\000\000@@\000\000\200@\000\000\200?\000\000\000\000\000\000\000@\000\000\200@\000\000\000@\000\000\000@\000\000@@\000\000\240@\000\000\200@\000\000\000@\000\000\000@\000\000\000\000\000\000\200@\000\000@@\000\000\000\000\000\000\000@\000\000\000@\000\000\000@\000\000\240@\000\000\000@\000\000`@\000\000\200?\000\000\200@\000\000\200?\000\000\200?\000\000@@\000\000\240@\000\000@@\000\000\000@\000\000@@\000\000@@\000\000\240@\000\000\000\000\000\000`@\000\000\000\000\000\000\200?\000\000@@\000\000\000@\000\000@@\000\000\000@\000\000 @\000\000\200?\000\000@@\000\000\000@\000\000\240@\000\000\000@\000\000\000@\000\000@@\000\000\000@\000\000@@\000\000\300?\000\000@@\000\000\000\000\000\000\000@\000\000@@\000\000\000@\000\000\000@\000\000@@\000\000@@\000\000@@\000\000\000@\000\000\200@\000\000@@\000\000\000@\000\000\000\000\000\000\000@\000\000@@\000\000\200@\000\000\000@\000\000@@\000\000\200@\000\000\240@\000\000\200?\000\000\200@\000\000\000@\000\000\200?\000\000\200?\000\000\000\000\000\000@@\000\000\200?\000\000\000@\000\000\000@\000\000\000@\000\000@@\000\000@@\000\000@@\000\000\000@\000\000@@\000\000\200@\000\000\200?\000\000@@\000\000\200@\000\000\000@\000\000@@\000\000\200?\000\000 A\000\000\340@\000\000\200@\000\000\200@\000\000@@\000\000\000@\000\000\300?\000\000\200@\000\000\000@\000\000\000@\000\000\000@\000\000\000@\000\000@@\000\000@@\000\000\300@\000\000@@\000\000\000@\000\000\200?\000\000\200?\000\000@@\000\000\000@\000\000\000@\000\000\240@\000\000\220@\000\000\000@\000\000\240@\000\000\000@\000\000\000\000\000\000\300@\000\000@@\000\000 @\000\000\240@\000\000\240@\000\000\240@\000\000\200?\000\000\300?\000\000\000@\000\000\000@\000\000@@\000\000\200?\000\000\000@\000\000\200?\000\000\000@\000\000@@\000\000\000@\000\000\000\000\000\000\200?\000\000\200?\000\000\000@\000\000\320@\000\000\000@\000\000@@\000\000\000@\000\000\200?\000\000\000\000\000\000\240@\000\000\000@\000\000\000@\000\000\240@\000\000\000\000\000\000\300@\000\000@@\000\000\200?\000\000\000\000\000\000\200?\000\000\200?\000\000\000@\000\000@@\000\000\000@\000\000\200?\000\000@@\000\000`@\000\000\000@\000\000 @\000\000\200?\000\000\300@\000\000@@\000\000\200@\000\000@@\000\000\240@\000\000\030A\000\000\000@\000\000\000@\000\000 @\000\000\000@\000\000@@\000\000\300@\000\000\200@\000\000\200?\000\000\200@\000\000\000\000\000\000\200@\000\000@@\000\000@@\000\000\200@\000\000\240@\000\000\000@\000\000\000@\000\000\000@\000\000\200@\000\000\200@\000\000@@\000\000\000@\000\000\200@\000\000@@\000\000\200@\000\000\200?\000\000\200?\000\000@@\000\000\000@\000\000\200?\000\000\000@\000\000\200@\000\000\300@\000\000@@\000\000@@\000\000\000@\000\000\000@\000\000@@\000\000\000@\000\000\200?\000\000\200@\000\000\000@\000\000\300@\000\000\000@\000\000@@\000\000\000\000\000\000\200?\000\000\000@\000\000\200?\000\000`@\000\000@@\000\000@@\000\000@@\000\000@@\000\000\000@\000\000@@\000\000@@\000\000\000@\000\000\000@\000\000@@\000\000\200?\000\000\200?\000\000\000@\000\000\000@\000\000@@\000\000\200?\000\000\000@\000\000\200@\000\000\000@\000\000\200?\000\000\200@\000\000\200@\000\000@@\000\000\000@\000\000@@\000\000@@\000\000\300@\000\000\000@\000\000\200?\000\000\000@\000\000\200?\000\000\300@\000\000\240@\000\000\200?\000\000\000\000\000\000\000@\000\000\200?\000\000\200@\000\000`@\000\000\000@\000\000\000\000\000\000\200?\000\000@@\000\000\200?\000\000\240@\000\000\000@\000\000\200?\000\000\240@\000\000\300@\000\000\200@\000\000\000@\000\000@@\000\000\000A\000\000\200?\000\000\000@\000\000\200?\000\000\000\000\000\000\200@\000\000\000@\000\000\000@\000\000\000@\000\000\200?\000\000\000@\000\000\000@\000\000\000@\000\000@@\000\000\200?\000\000@@\000\000\000A\000\000\000@\000\000@@\000\000\200?\000\000\000@\000\000\240@\000\000\200@\000\000\340@\000\000\000@\000\000\000@\000\000@@\000\000\200?\000\000\000@\000\000@@\000\000\000@\000\000\000@\000\000\000@\000\000\000@\000\000@@\000\000\000@\000\000\200@\000\000\200@\000\000\200?\000\000\000@\000\000\000@\000\000\000@\000\000\000\000\000\000\240@\000\000\000@\000\000\000@\000\000\000\000\000\000\000\000\000\000\000@\000\000\200?\000\000\000@\000\000\200?\000\000\000@\000\000\240@\000\000\200?\000\000\000@\000\000@@\000\000\200@\000\000\240@\000\000\000\000\000\000\000@\000\000\200?\000\000`@\000\000\200?\000\000\240@\000\000\000@\000\000\200@\000\000@@\000\000\240@\000\000@@\000\000@@\000\000@@\000\000@@\000\000@@\000\000\000@"
      }
    }
  }
}
node {
  name: "Const_2"
  op: "Const"
  attr {
    key: "_output_shapes"
    value {
      list {
        shape {
          dim {
            size: 603
          }
        }
      }
    }
  }
  attr {
    key: "dtype"
    value {
      type: DT_FLOAT
    }
  }
  attr {
    key: "value"
    value {
      tensor {
        dtype: DT_FLOAT
        tensor_shape {
          dim {
            size: 603
          }
        }
        tensor_content: "\000@\267D\000\220qE\000`\013E\000\240\214D\000 \016E\000`\317D\000\0006D\000\000\201D\000`\374D\000@zD\000\000\261D\000\320\rE\000\200TD\000\000HE\000\240\323D\000\340XE\000\000\207D\000@sD\000\300\254D\000\240\235D\000`\266D\000\340cE\000\240\327D\000`8E\000\220\nE\000@\003E\000\000\026E\000\200\204D\000@\265D\000@\262D\000\200nE\000\200\315D\000\260sE\000\300\313D\000@\203D\000\000lD\000 \224D\000\000\325D\000\220<E\000\000\210D\000\000iD\000\300\235D\000\200\245D\000\020<E\000\000\377D\000@NE\000\300yD\000\000\257D\000 \265D\000@\206D\000\360\322E\000\320HE\000`\333D\000\300\250D\000\300IE\000\000WD\000@\203E\000@\347D\000 \262E\000\000\177D\000\200\355D\000\000\341D\000@\224D\000\000CE\000\200\266D\000P.E\000\000\226D\000\360&E\000 \240D\000\300\327D\000 \220D\000\3204E\000\3205E\000\200)D\000\000\233D\000p\301E\000\000>D\000\300FE\000\000HD\000\240\226E\000\340TE\000\200\265D\000\000\315D\000\000\341D\000 \007E\000\000\304D\000\230\236E\000\3541F\000\000\211D\000p\023E\000\000\000\000\000\200\221D\000\000\000\000\000\000\000\000\000\300\264D\000\240\357E\000\000*D\000\240\244D\000\220/E\000\000+D\000`\023E\000@\332D\000\300=E\0000\021E\000\200\212D\000\340\232D\000 \237D\000\300\301D\000\200\257D\000\340\234D\000 \253D\000\000\310D\000\300\237D\000\200\242D\000 ~E\000\020VE\000`\025E\000\300\017E\000\300\263D\000\200\312D\000(\334E\000\200\tE\000\000\000\000\000\320\032E\000`\206E\000`\206E\000\240*E\000\000*E\000\2001D\000\200\204D\000\240\214E\000\0007D\000\2006E\000\300\200D\000\000\001E\000@\202E\000\300XE\000\300\247D\000\200-D\000\300AE\000\000\222D\000\300ZD\000\240\240D\000@\366D\000\000\021E\000\020!E\0000LE\000\200\331D\000\300\242D\000\000\\D\000`\025E\000\000\220D\000\250\244E\000`\302D\000\000\363D\000\300bD\000\200\211D\000`\222D\000\200\311D\000x\353E\000@\221D\000@\216D\000\000\242E\000\300\337D\000\000\000\000\000\000\004D\000\3009D\000\340\244E\000\000\000\000\000`\241D\000\000\322D\000\200&E\000`\247D\000\200pD\000\340\267D\000\000\223D\000@}D\000@\003E\000\240\322D\000\020#E\000\220vE\000\000\360D\000\240\214E\000`\rE\000\300ZD\000\200\311D\000\300\315D\000\000\365D\000`SE\000\300kE\000\360>E\000\300\301D\000\200\225D\000\200@D\000\300wD\000 -E\000\000%D\000\200\256D\000\300\032D\000\000\000\000\000\000ID\000\300\313D\000\200\263D\000\300 E\000\000kE\000\000\000\000\000\200\266D\000\240\251D\000\200{D\000\240\272D\000\000\341D\000\260\014E\000\300\320E\000\000\220D\000@VD\000\340\014E\000\2000D\000 \212E\000\200\277D\000P\004E\000\200\"D\000\000\210D\000\340qE\0000\001E\000\300\340D\000\240\224D\000@4D\000\370\261E\000\000RD\000\200\317D\000\000 E\000\300\212D\000\300\320D\000\200]D\000`\204D\000`\330D\000`\256D\000\230\251E\000\240\327D\000\200\tE\000\200rD\000`\206D\000`\364D\000\320OE\000`\006E\000\000pD\000p\002E\000\340:E\000\200\000E\000\240_E\000\0007D\000\240mE\000\000\372D\000\000zE\000\340\304D\000@\270D\000pCE\000P\242E\000\360sE\000\200nD\000 \272D\000\000\000\000\000\230\250E\000\200\315D\000\240:E\000\000\231D\000\200\312D\000\300\230D\000\240\202E\000\200,E\000P\014E\000@JD\000\240\033E\000\000XD\000\000HD\000\200\023E\000\370\261E\000`\305D\000\300\344D\000\300(E\000\200\331D\000\220nE\000\030\234E\000\000\'E\000\260\213E\000@\256D\000\200\235D\000\300\315D\000\000\365D\000\220FE\000\220UE\000\300kD\000@\304D\000\300\320D\000\220\216E\000`\205D\000\240\272D\000\360\023E\000@\334D\000@\014E\000\000cD\000P\027E\000\350\256E\000\200\225D\000\000\366D\000\000\226D\000\340\310D\000\220\033E\000\240\373D\000\340\030E\000 \244D\000\240tE\000\300yD\000\340\323D\000\240vE\000\000HD\000\300\317D\000\360WE\000@\335D\000\000\302D\000@\003E\000\240?E\000\000\201D\000\240\033E\000\000\257D\000\000HD\000\200\005D\000\354\251F\000\300<E\000\2007D\000\300\332D\000\000\234D\000@\324D\000\240\003E\000\360\tE\000\200\334D\000\000\226D\000\240\327D\000\300AE\000\200VD\000 \305D\000 \200E\000@\331D\000 \031E\000\200ED\000,UF\000\370\317E\000\240%E\000\240\207E\000\340\006E\000\000\242D\000\2009D\000\000\353D\000\000\221D\000\000\233D\000\300\363D\000\200\204D\000\200tD\000 #E\000\200|E\000\200\265D\000\000\234D\000\000_D\000\000\203D\000\000\026E\000\000\234D\000\000\226D\000\200\324E\000 sE\000`8E\000\220vE\000\240\245D\000\000\341D\000\340\253E\000\2404E\000\200\355D\000@\037E\000\320\317E\000\220HE\000\000nD\000\300\246D\000\200\235D\000\240\312D\000\220\035E\000@?D\000\340\rE\000\200QD\000\000{D\000\000\326D\000@\201D\0000rF\000\000\255D\000\200kD\000`\212D\000\310\265E\000\340\255D\000@\256D\000\000\334D\000 \201D\000@\250D\000\300\217E\000\300\320D\000\000\253D\000\360wE\000\3167G\000\220\246E\0000>E\000\200TD\000\260tE\000@PD\000\000(D\000\340\314D\000P\034E\000\300nD\000 \213D\000\320\000E\000\240:E\000\340\277D\000\200\266D\000\000\000\000\000\030\262E\000 2E\000\220@E\000\340\027E\000\240bE\000\014UF\000`\275D\000\300\217D\000\200\025E\000\300}D\000\000\026E\000@\203E\000 @E\000\000ZD\000\320\204E\000\360\206E\000\200\234E\000@\003E\000\240\350D\000\360mE\000\300\250E\000\000nD\000\300\264D\000@\003E\000 \000E\000@fE\000\240\276D\000\200\225D\000\360,E\000\320\001E\000 _E\000@\003D\000@$D\000\000\341D\000\240\264D\000\200\000D\000\300\254D\000p`E\000\340\235E\000\020{E\000@\253D\000`\242D\000`\375D\000\200,E\000@\034E\000\000CD\000\250\211E\000\200\331D\000p\232E\000\000\372D\000\000\277D\000\270\253E\000\000\355C\000\300\312D\000\200\351C\000\200TE\000\000\375D\000\240*E\000\300\370D\000\340;E\000\000fD\000\320+E\000\000\014E\000 \312D\000\200\357D\000\020.E\000\000jD\000\000\034D\000\360#E\000\240\255D\000\260)E\000\000aD\000\200\225D\0000\000E\000\300\250D\000\000\033D\000\300\037E\000\200;E\000\240\025E\000\340\314D\000@\271D\000\200\324D\000\320\233E\000\200\226D\000\240\301D\000@\270D\000\300ID\000 \277E\000x\307E\000\000\000\000\000\340OE\000\000zD\000\300)D\000P\225E\000@gE\000\000RD\000`\266D\000@gD\000\000\310D\000\200&D\000\330\312E\000\300\200D\000\300sD\000 ^E\000\000\000\000\000\2603E\000\000\214D\000\000\325D\000\240\365E\000\000zD\000P\001E\000\200[D\000\000\264D\000 \245E\000`\274D\000\000\237D\000@\024E\000@.D\000`\232D\000\000\304D\000\300\303D\0000)E\000\000\"D\000\200\311D\000x\272E\000\240\331D\000\240EE\000@\215D\000\340\226D\000X\203E\000\300\231E\0000\230E\000`\220D\000\000\304D\000\340\027E\000\200\"D\000\000\225D\000\200\350D\000 \240D\000\300\210D\000`\337D\000\300\255D\000`\037E\000\340\254D\000`UE\000\000!E\000\000MD\000 \227D\000`\266D\000\200\343D\000\260\232E\000\320-E\000\300\325D\000\000\231D\000\240bE\000@\261E\000\000\265D\000@`D\000\300\250D\000\200|D\000\300yD\000\260\007E\000\300^D\000\300nD\000\360\036E\000\240\024E\000\340DE\000@\034E\000\000\320D\000\000kD\000\000\253D\000@\007D\000\200\242E\000`\352D\000\350\203E\000p\016E\0008\201E\000\000\000\000\000\200\030E\000`\333D\000\020\035E\000 \250D\000\300\235D"
      }
    }
  }
}
node {
  name: "Const_3"
  op: "Const"
  attr {
    key: "_output_shapes"
    value {
      list {
        shape {
          dim {
            size: 603
          }
        }
      }
    }
  }
  attr {
    key: "dtype"
    value {
      type: DT_FLOAT
    }
  }
  attr {
    key: "value"
    value {
      tensor {
        dtype: DT_FLOAT
        tensor_shape {
          dim {
            size: 603
          }
        }
        tensor_content: "t\323\364\302\'!\365\302|\235\364\302\236\316\364\302\350\024\365\302\254\336\364\302r\021\365\302\356\243\364\302o\235\364\302i\222\364\302V\376\364\302 \322\354\302j\027\365\302v\006\365\302\341\245\364\302\243\336\364\302\327\373\363\302\357\321\364\302\303\311\364\302\313\310\364\302\331\314\364\302\241\344\364\302\206\244\364\302\365\033\365\302\255\322\365\302\203\261\364\302\256\270\362\302\265\357\364\302\337I\365\302\021M\365\302\216\337\364\302\253\031\365\302b\346\364\302 z\357\302d\356\364\302(\007\365\302\231\332\364\302\365\212\364\302rw\364\302\255i\364\302T\316\364\302\236\371\364\302?\254\364\302\204\352\364\302\374\241\364\302s\362\364\302\337\367\364\3026\310\364\302\275\331\364\302I\321\364\302\250\347\364\302\343\001\365\302\323\010\365\302\237\234\364\302\021\315\354\302)\203\364\302GU\364\302i\345\364\302V\350\364\302_\343\364\302\243\342\364\302X\n\364\302\2675\365\302`\346\364\302\204\201\364\302\303\235\362\302-\001\365\302z\312\364\302!\354\364\302\265\007\364\302K\326\364\302\036\034\365\302\3349\364\302*5\365\302\\\232\364\302I\340\364\302I\370\364\3029\367\364\302<\374\364\302\017\220\364\302R_\364\302P\001\365\302F\232\364\302\177\247\364\302\030i\364\302\324\345\364\302\303\331\364\302k9\362\302l\031\365\302\035:\365\302-\344\364\302\364\337\364\302\366\032\365\302\237\372\364\302cc\365\302P\036\365\302\001\010\365\302\215\310\364\302\026\370\364\302\272\337\364\302.\345\364\302\013\326\364\302\251j\364\302R\342\364\302/\373\363\302\n\352\364\302\240\214\364\302\177\371\363\302@J\365\302\333\303\364\302]\322\354\302{?\362\302/\250\364\302P\341\364\302/\327\364\302\206\344\364\302@\237\364\302R\362\364\302o\371\364\302\324\332\364\302\250\347\364\302?b\364\302_\260\365\302\350e\365\302V\334\364\302l\320\354\302Jf\362\302\377\342\364\302\021\252\364\302\343-\365\302\273\264\365\302\301\250\364\302O\362\364\302(\242\364\302\303_\364\302\213\343\364\302\362\370\364\302\224\013\365\3023\344\364\302\240\353\364\302S\372\364\302\354]\365\302\r\000\365\302\334\246\364\302q\253\364\302)P\364\302:\356\364\302\275\336\364\302\014D\365\302p\320\364\302*\237\364\302A\214\357\302\310X\365\302\262\005\365\302\200\372\364\302\325\330\364\302\007p\363\302\230\310\364\302-#\365\302\334\354\364\302\252e\365\302\301\321\364\302\377\322\365\302a\206\364\302<\017\365\302\271\004\365\302o\357\364\302\006t\362\302\330\210\357\302\210\016\365\302\003\t\364\302\n\321\364\302\356\021\365\302\325\021\365\302\254\313\364\302\275\322\364\302\200\334\364\302-\344\364\302\202\006\364\302q\371\364\302\020\345\364\302qX\364\302o\334\364\302_Y\365\302E\343\364\302\317P\364\302P\350\364\302\023C\365\302\215\310\364\302\270\343\364\302Vt\364\302^I\364\302Zz\357\302tK\364\302\274\275\365\302\313^\364\302M\031\365\302*\347\364\302\022\341\364\302av\364\302\337\307\364\302]v\364\302vg\365\302\276\216\365\302\224W\362\3020\236\364\302\202\033\365\302\330\346\364\302\316\r\365\302\010\337\364\302\310\247\364\302\254\313\364\302P\353\364\302\232\010\364\302\342\302\354\302\202\334\364\302\303\327\364\302\345\377\364\302\237\317\364\302\307\354\364\302\274\332\364\302\247p\364\302\005\343\364\302\002P\364\302X\n\364\302\215\324\354\302\230\310\364\302\357a\365\302\203J\365\302!\250\364\302-\217\364\302\325\334\364\302\376\330\364\302i\333\364\302\313\323\364\302\270\331\364\302\245\212\364\302\rw\364\302p\316\364\302\253\374\364\302\032\253\364\302\271\324\364\302tY\362\302\307\352\364\302Gz\364\302\271\363\364\302\032\341\364\302Y\010\365\302J\220\364\302\223\370\364\302f\037\365\302\033\325\364\302\302\255\364\302\313L\364\302\300:\365\302}\367\364\302\207\346\364\302\3409\365\302\276\356\364\302?\021\365\302[\323\364\302\322\370\364\3027\347\364\302-\035\365\302w\305\364\302\024\207\357\302t\377\363\302\'\326\364\302\305\372\364\302\'\336\364\302\033\233\364\302\036\312\364\302M\r\365\302)\362\364\302H\177\357\302lC\364\302\357a\365\302\276\314\354\302$\301\362\302\225\205\364\302^,\365\302\014\311\354\302\006\326\364\302,\027\365\302\271\353\364\302E\356\364\302\253h\365\302\031\361\364\302p\316\364\302L\343\362\302\337\236\365\302\310\306\364\302\364\346\364\302\365$\365\302\203\307\354\302\243}\357\302\007\337\364\302\237\376\364\302\226S\364\302\263:\365\302\263\326\364\302)\221\364\302e\340\364\302\'\201\357\302\014\031\365\302FD\362\302\010\002\365\302\033\n\366\302\373\250\364\302\017\370\364\302B\310\364\302\232]\364\302\'?\365\302vq\365\302\276\337\364\302\227\320\354\302\275\373\364\302\207\034\365\302(\001\364\302z\350\364\302|\320\354\302\344\322\364\302\'E\362\302\343\362\364\3029\014\365\302\215\310\364\302\226\310\364\3023\321\364\302SC\365\302\227\007\366\302\374\370\364\302\'E\362\302\267c\364\302x\354\365\302\325\322\364\302|\373\364\302\'E\362\302\351\t\365\302\344\'\365\302\256i\365\302\271C\365\302\n\361\364\302\006e\365\302<\241\364\302Y\364\364\302\300\343\364\302\234\352\364\302\006\337\364\3029\255\364\302c\346\364\302T\016\365\302\320\317\364\302\306\022\365\3023\307\364\302\332\232\364\302\022\005\364\302\227\204\364\302\377\322\364\302&\007\366\302\271\335\364\302\224\177\363\302Yu\365\302\355d\365\302\307\326\364\302\274\366\364\302!D\362\302f\332\364\302\216\342\364\302#\324\364\302%\033\365\302\314\344\364\302\247\361\364\302e\325\364\302\020\034\365\302nO\364\302\023\343\364\302\343\350\364\302\027\372\364\302\313j\365\302x\315\364\302\265\320\364\302\335\322\364\302f\205\364\302\034\212\364\302\324e\365\302\022\372\364\302\346\315\364\302\303\327\364\302\251\023\365\302\r`\365\302F\333\364\302\332\331\364\302m\177\357\302\263\326\364\302\347\\\364\302\344\306\364\302\324\367\364\302(\001\364\302\316\313\354\302\221\246\364\302\323\355\364\302\257\335\364\302\310\000\364\302\376\335\364\302\304\323\364\302\260J\364\3027\017\365\302j\027\365\302\036\327\364\302^\330\364\302\303\327\364\3021\310\364\302k \365\302ja\365\302\230\025\365\302q$\365\302\305\334\364\302\275\322\364\302\354\323\364\302\032\323\364\302Jl\364\302\357\334\364\302\252K\364\302\337Z\365\302\003I\365\302\032\014\365\302h\247\364\302\210J\364\302a\354\364\302\277\206\364\302\n\000\365\302\312\315\354\302K@\364\302\257\030\365\302\262 \365\302\260\317\364\302\304\304\354\302QP\364\302\315\325\364\302\224\034\365\302\035\325\364\302p\316\364\302`\353\364\302!\267\365\302\244\003\365\3027\366\364\302\334\316\364\302\207\212\357\3023\352\364\302U\307\354\302#\014\365\302\237\317\364\302\362\341\364\302+\342\364\302\254\343\364\302\253\316\364\3028\374\364\302\213\324\364\302\215\033\365\302\204r\364\302\316\313\354\302\237\317\364\302\007\021\365\302\325\026\365\302\314\250\364\302\366\243\364\302\223 \365\302(\001\364\302\376\032\365\302Y\253\364\302\334\024\365\302\213\331\364\302\303\327\364\302\227\327\364\302\034\333\364\302\260\333\364\302\317\241\364\302wf\362\302%\256\365\3020\014\365\302\227\316\364\302\213\005\365\3026\205\364\302\332G\365\302\205~\357\302\034W\365\302\345\316\364\302E\231\364\302\267\007\366\302p\360\364\302\023E\364\302\201\177\357\302\254z\357\302/\364\365\302\302\336\364\302\317\214\364\302#\212\364\302\'\226\364\302)k\364\302\350@\364\302o\273\362\302m\211\364\302\227\\\364\302\022\340\364\302RM\365\302}\367\364\302)\337\364\302O\365\364\302\"\355\364\302m#\365\302\364\320\364\302x\010\364\302\246\330\364\302o\371\364\302\327\322\364\302\276\355\365\302S\000\364\302Xu\364\302\235\375\364\302\000\330\364\302\203\355\364\302\t\310\364\302\325\221\364\302Kj\363\302qf\365\302\256\374\364\302T\026\365\302\245\033\365\302\271\346\364\302\302\323\364\302\346\331\364\302\344\306\364\302\006\362\364\302\177a\365\302\265\320\364\302\t\302\364\302\256\261\364\302rf\365\302\306\311\364\302\274\377\363\302\n\002\364\302\272,\365\302\243\333\365\302\215#\365\302x\322\354\302\201\346\364\302G\320\354\302\337\367\364\302\260\307\364\302\007U\364\302\243\353\364\302\350\344\364\302\335\334\364\302\323<\364\302\211\253\364\302\261\007\365\302I\001\365\302\201\266\364\302\326\004\364\302\007\332\364\302?\334\364\302T\026\365\302\245\266\362\302Q\312\364\302\363\021\365\302\002\317\364\302\226\017\365\302?\321\364\302Q\312\364\302~\377\363\302c\320\364\302q\023\365\302\322\377\363\302\'\326\364\302j\365\364\302r)\365\302\322\377\363\302^\315\364\302l}\357\302\326F\364\302D\'\365\302mH\365\302 \327\364\302\320\366\364\302\023\355\365\302\377\365\364\302\263\314\354\302\336\367\364\302\211\251\364\302\263~\357\302\255\350\364\302\321\326\364\302\310\372\364\302\006H\365\302M\342\364\302\272\020\365\302\325\315\354\302\361\357\364\302b\027\365\302c\311\354\302TM\364\302\276\327\364\302\350^\365\302"
      }
    }
  }
}
node {
  name: "Const_4"
  op: "Const"
  attr {
    key: "_output_shapes"
    value {
      list {
        shape {
          dim {
            size: 603
          }
        }
      }
    }
  }
  attr {
    key: "dtype"
    value {
      type: DT_FLOAT
    }
  }
  attr {
    key: "value"
    value {
      tensor {
        dtype: DT_FLOAT
        tensor_shape {
          dim {
            size: 603
          }
        }
        tensor_content: "\0211\027B\001\312\027B\220\033\026B\272\342\026B\346\216\027B\026 \031B\316\324\027Bf>\026B\242,\031B\010A\026B\241\356\026B\275\221\007BG\t\030B\225.\026B\204V\031B\177\003\027B\344\234\025B\353\034\027BR\340\026B\356$\027B.1\027Bo3\027B\354C\031B\236\247\027B$\357\030B\035G\026BI=\023Bw\224\026B\365\230\027BE\360\030B\305\377\026B~i\030B:$\027Bx3\036B\235\336\026B\256\302\027B\327\030\027Bij\027B?s\027B\3300\027Bt\016\027B\206\035\027B\304G\026B\331\365\026B\2719\026B\263\177\027B E\031B\231\'\027B\265\032\027B8\013\027B\375\017\027BL\310\027B \r\030B\377(\026B\323\230\007B|m\027BU\245\027Bs)\027B\177)\027B\262\002\027B\2632\027Bo\232\025B\251~\030B $\027B\301A\026Bg\224\023B\367|\027B\315t\031BO\371\026B\242\234\025B\211*\027B\215\375\027B%\277\025B\223\346\027B\312\025\025B\033\023\027B\214;\031Bi\016\027B6\000\027B\027-\026B\204}\027B\204\255\027B\331\034\026B\006@\026B\242C\027B-\372\030B-\t\027B\2737\033B\256\003\030B\376\345\030B\374\353\026Bf\376\026Bs\314\027B\327\n\031B\315_\031B\271\330\027B2~\027BG(\027BKJ\031B\016\367\026B\256\034\027B\020\357\026B\331-\027B\322\014\027Br\223\025B\263\003\027B\307y\027B\005\235\025B\177\231\027Bl\363\026B\017\213\007B\363>\033B<=\026B|/\027B\204\241\026B\n\r\027B\364A\026Bc\032\027B\300C\031B\244\360\026B\377\'\027B\0147\027B\007Z\030BK\266\027B\306\027\027B\341\206\007B*=\033Bi\032\027BAE\026B\313\353\027B]A\031B\355Z\031Bd\031\027B\213I\026Bs\233\027B\275\202\027B\331\255\027B\231R\030B\347\006\027B\222\332\026B\340!\027B\002\244\027B\022\030\027B\235E\031B\253\025\026B\241\301\025BC|\027B\336u\026B\333\351\030Ba\205\026B\001B\026B\251*\036B\000&\030B\253z\027B\246h\027B\250%\027B\000A\023B\350\030\027B\250x\030B7w\027B\016e\031B\301\032\027B\306\255\031B\377=\026Bo\262\027B\236\200\027B\210\327\026B\217m\033Bf)\036B\003\205\027B\022\235\025Ba\376\026B\245\206\027B\272\302\027B\3060\027Bx\010\027BG\330\026B\373\353\026B\352\232\025B\326f\027B\2033\027B\214\225\027B-/\027B{\241\027B\237\353\026B\244\310\025BT\000\031B<\332\030BG(\027B\342/\027B\247)\031B\001\337\025Bt9\036B\236\342\025BTq\030B^\220\027B\353\003\030B\000&\027BG\021\027B\341o\027B{(\027B\341\345\031B\345S\031B\037\010\031B\025=\033B\253/\026B$X\030B\002\223\026B\264\203\027B\251/\027B\270>\026B\3060\027BN\224\027BY\262\025B\332\222\007B\027\242\026B$ \027B;1\031B\2137\027B\304\370\026B\006\207\026B\306-\027B=\025\027B\233\314\025Bp\232\025B\013\230\007B\350\030\027B\033\253\027B\n\014\031B\255<\026B\314\037\026B\307\241\026B\303*\027B\2076\027B\023*\027B\235\032\027B\0256\026B-l\027B*\'\027B\272l\027B5G\026B}\363\026B\014\034\033B\"}\027B\0144\031B};\031B\334\013\027B\230\'\026B\272~\027B\255j\027B\034\n\030BY\n\027BRL\026B\360\317\025B\341\003\031B\202\332\026B_\035\031B\346g\030B\267x\027B\020\312\027B\262\010\027Br\036\027B~\203\027BR\017\030B>\354\026B\2249\036Bb\232\025B\231\r\027Bb\'\027B\0357\027B\205 \026BD%\027B`\321\027B\257.\031B\300$\036B\316\340\025B\033\253\027B+\216\007B\'h\023B\221)\026BH\365\027BA\210\007B|+\027B\277\215\027B\255!\027B\215\347\026BA`\031B\3613\031B*\'\027B\330[\023BmE\030B\263\025\027B\315\236\026B[m\030B\366\221\007B\2650\036B\251/\027B;j\030B\310\312\025B\231s\030B\r&\027B;3\026BB\030\027B\2414\036B\334\001\030BP0\033B\376w\027Bm<\031B\367=\031B\"g\027B\322(\027B\312\225\027BF\351\030Bh\034\031Bs5\027B:\233\007BC\223\027BN\327\027B\032\235\025B\250\202\027B\215\205\007B\354\026\027BH0\033B\t\360\026B\n+\030BG(\027B\255\035\027BW)\027B\201\340\030Bo\375\031B\202\034\027BH0\033B\254\245\027B\354\006\031B\014\031\027B\246Q\031BH0\033B\201\274\027B\235\356\027BOf\031B\225\366\030B\263\035\027Bsj\031B\032\035\026B\237\n\027B\312*\027B\016\213\027B\223/\027Ba?\031B:$\027Bn\311\027B\035)\027B\245\204\027B\033%\027BH3\026B\243\231\025B!1\026B|7\027B\2519\031B\331\371\026B\360\021\023B\362g\031B\316\005\031B\342\020\027B\307\031\027B:>\033B\337\022\027BwN\031BG0\027B\002\341\027B\3423\027B\372\'\031B\3661\027B\375\336\027B\276\301\025B\351\013\027B\014\357\026B\340\'\027B\350\303\027B[&\027B\017%\027B\370\364\026Bi=\026B\362e\027B\233\254\027B\216\372\026B\201\037\027B$ \027B;\220\027BP]\031B\3340\027B|\021\027B\3632\036B\r&\027B\244u\027B\033\026\027B\337B\031B\032\235\025B\010\217\007B\303W\031B\376v\027B\032\025\027Bu\231\025B\355\377\026B\357!\027B\364\276\025B\333\262\027BG\t\030B\303\010\027B\367\022\027B$ \027B\037\032\027B\254\236\027BkZ\031B#G\030Btt\030B[\367\026Bx\010\027B\332\032\027B\245.\027B\305\211\027B\320\024\027Bf\305\025B\271d\031B\004\355\030B\345\254\027Bv<\026B\341\346\025B\303\204\027B\0013\026Br(\026B\264\230\007B2\315\025BSQ\030B\021\320\027B\023/\027B\254\210\007B\314\305\025B\256\002\027Bm\305\027Bt1\027B*\'\027B\261\342\026B\230b\030Bc\027\027B\313k\027Bi5\027B\250\037\036B*\347\026B=\230\007B\344\313\027B\2137\027B\265\367\026B\013\352\026B\335\362\026B\364\035\027Bt\r\031B\026$\027B6\325\027B\221r\027BE\215\007B\2137\027B\t\267\027BX\241\027B#V\026B\301:\026B\347\313\027B\032\235\025B\016\327\027B\035F\026BCE\030Bq\030\027B$ \027BR6\027B@\026\027B\000\006\027B^[\031B\272;\033B[O\030B\220>\030B\027\251\026B\2264\030B4-\026B\263\230\027B7<\036B\374\241\027B\3016\027B\217@\031B\236<\031B/\001\027B\364\275\025BB,\036B\0327\036B\370\025\032BZ/\027B\206|\027B\036h\027B\223:\026B\020z\027BV\305\025B\336@\023Bq0\026Bfw\027B\265\377\026B\005\234\027B\202\332\026B\373\004\027Bfh\027B\353\360\026B\341\330\027B \035\027B\312\234\025B\" \027Bem\027B\004,\027B\341\000\031Bi\241\025B\3135\027Bb\033\027Bw\030\027B\r\214\027B\240&\027B\350D\026B\2306\023B<\243\027B0\375\026Bm\230\027B\237N\030B\n*\027B|\025\027B\266/\027B\033\026\027B\253%\031B\302;\030B\016%\027B\303\353\026BP9\031B\275^\031BL\031\027B\031\234\025B\246\232\025BP{\030B\253\013\032B5w\030Bs\210\007B $\027B\374\225\007BiG\031B\375&\027B\345\241\027B|\216\027B\3352\027B\337\026\027B\033\302\025B\'\027\026B\222\303\027BY\363\026B\004\035\026B\223\225\025B<%\027B\3725\027B\256\n\030B/<\023B\224\026\027B\022\300\027B\027%\027B\360\016\030B\251\027\027B\224\026\027B\310\234\025B\r.\027B&\336\027Bu\234\025B\231\r\027B\224k\027B\020\362\027Bu\234\025B1\025\027B5A\036B\377\346\025B\303\355\027B\352\235\027B(!\027B\324k\027B\250\007\031B\306a\027B\315\220\007Bh\013\027B/f\031B\3612\036BZ\355\026B\034(\027B>\'\027Bv\235\027B\2251\027B\023{\027B]\221\007B\030#\027B\"n\030B\017\177\007B\220\312\025B\021\031\027B\314w\031B"
      }
    }
  }
}
node {
  name: "SparseTensor/indices"
  op: "Const"
  attr {
    key: "_output_shapes"
    value {
      list {
        shape {
          dim {
            size: 603
          }
          dim {
            size: 2
          }
        }
      }
    }
  }
  attr {
    key: "dtype"
    value {
      type: DT_INT64
    }
  }
  attr {
    key: "value"
    value {
      tensor {
        dtype: DT_INT64
        tensor_shape {
          dim {
            size: 603
          }
          dim {
            size: 2
          }
        }
        tensor_content: "\000\000\000\000\000\000\000\000\000\000\000\000\000\000\000\000\001\000\000\000\000\000\000\000\000\000\000\000\000\000\000\000\002\000\000\000\000\000\000\000\000\000\000\000\000\000\000\000\003\000\000\000\000\000\000\000\000\000\000\000\000\000\000\000\004\000\000\000\000\000\000\000\000\000\000\000\000\000\000\000\005\000\000\000\000\000\000\000\000\000\000\000\000\000\000\000\006\000\000\000\000\000\000\000\000\000\000\000\000\000\000\000\007\000\000\000\000\000\000\000\000\000\000\000\000\000\000\000\010\000\000\000\000\000\000\000\000\000\000\000\000\000\000\000\t\000\000\000\000\000\000\000\000\000\000\000\000\000\000\000\n\000\000\000\000\000\000\000\000\000\000\000\000\000\000\000\013\000\000\000\000\000\000\000\000\000\000\000\000\000\000\000\014\000\000\000\000\000\000\000\000\000\000\000\000\000\000\000\r\000\000\000\000\000\000\000\000\000\000\000\000\000\000\000\016\000\000\000\000\000\000\000\000\000\000\000\000\000\000\000\017\000\000\000\000\000\000\000\000\000\000\000\000\000\000\000\020\000\000\000\000\000\000\000\000\000\000\000\000\000\000\000\021\000\000\000\000\000\000\000\000\000\000\000\000\000\000\000\022\000\000\000\000\000\000\000\000\000\000\000\000\000\000\000\023\000\000\000\000\000\000\000\000\000\000\000\000\000\000\000\024\000\000\000\000\000\000\000\000\000\000\000\000\000\000\000\025\000\000\000\000\000\000\000\000\000\000\000\000\000\000\000\026\000\000\000\000\000\000\000\000\000\000\000\000\000\000\000\027\000\000\000\000\000\000\000\000\000\000\000\000\000\000\000\030\000\000\000\000\000\000\000\000\000\000\000\000\000\000\000\031\000\000\000\000\000\000\000\000\000\000\000\000\000\000\000\032\000\000\000\000\000\000\000\000\000\000\000\000\000\000\000\033\000\000\000\000\000\000\000\000\000\000\000\000\000\000\000\034\000\000\000\000\000\000\000\000\000\000\000\000\000\000\000\035\000\000\000\000\000\000\000\000\000\000\000\000\000\000\000\036\000\000\000\000\000\000\000\000\000\000\000\000\000\000\000\037\000\000\000\000\000\000\000\000\000\000\000\000\000\000\000 \000\000\000\000\000\000\000\000\000\000\000\000\000\000\000!\000\000\000\000\000\000\000\000\000\000\000\000\000\000\000\"\000\000\000\000\000\000\000\000\000\000\000\000\000\000\000#\000\000\000\000\000\000\000\000\000\000\000\000\000\000\000$\000\000\000\000\000\000\000\000\000\000\000\000\000\000\000%\000\000\000\000\000\000\000\000\000\000\000\000\000\000\000&\000\000\000\000\000\000\000\000\000\000\000\000\000\000\000\'\000\000\000\000\000\000\000\000\000\000\000\000\000\000\000(\000\000\000\000\000\000\000\000\000\000\000\000\000\000\000)\000\000\000\000\000\000\000\000\000\000\000\000\000\000\000*\000\000\000\000\000\000\000\000\000\000\000\000\000\000\000+\000\000\000\000\000\000\000\000\000\000\000\000\000\000\000,\000\000\000\000\000\000\000\000\000\000\000\000\000\000\000-\000\000\000\000\000\000\000\000\000\000\000\000\000\000\000.\000\000\000\000\000\000\000\000\000\000\000\000\000\000\000/\000\000\000\000\000\000\000\000\000\000\000\000\000\000\0000\000\000\000\000\000\000\000\000\000\000\000\000\000\000\0001\000\000\000\000\000\000\000\000\000\000\000\000\000\000\0002\000\000\000\000\000\000\000\000\000\000\000\000\000\000\0003\000\000\000\000\000\000\000\000\000\000\000\000\000\000\0004\000\000\000\000\000\000\000\000\000\000\000\000\000\000\0005\000\000\000\000\000\000\000\000\000\000\000\000\000\000\0006\000\000\000\000\000\000\000\000\000\000\000\000\000\000\0007\000\000\000\000\000\000\000\000\000\000\000\000\000\000\0008\000\000\000\000\000\000\000\000\000\000\000\000\000\000\0009\000\000\000\000\000\000\000\000\000\000\000\000\000\000\000:\000\000\000\000\000\000\000\000\000\000\000\000\000\000\000;\000\000\000\000\000\000\000\000\000\000\000\000\000\000\000<\000\000\000\000\000\000\000\000\000\000\000\000\000\000\000=\000\000\000\000\000\000\000\000\000\000\000\000\000\000\000>\000\000\000\000\000\000\000\000\000\000\000\000\000\000\000?\000\000\000\000\000\000\000\000\000\000\000\000\000\000\000@\000\000\000\000\000\000\000\000\000\000\000\000\000\000\000A\000\000\000\000\000\000\000\000\000\000\000\000\000\000\000B\000\000\000\000\000\000\000\000\000\000\000\000\000\000\000C\000\000\000\000\000\000\000\000\000\000\000\000\000\000\000D\000\000\000\000\000\000\000\000\000\000\000\000\000\000\000E\000\000\000\000\000\000\000\000\000\000\000\000\000\000\000F\000\000\000\000\000\000\000\000\000\000\000\000\000\000\000G\000\000\000\000\000\000\000\000\000\000\000\000\000\000\000H\000\000\000\000\000\000\000\000\000\000\000\000\000\000\000I\000\000\000\000\000\000\000\000\000\000\000\000\000\000\000J\000\000\000\000\000\000\000\000\000\000\000\000\000\000\000K\000\000\000\000\000\000\000\000\000\000\000\000\000\000\000L\000\000\000\000\000\000\000\000\000\000\000\000\000\000\000M\000\000\000\000\000\000\000\000\000\000\000\000\000\000\000N\000\000\000\000\000\000\000\000\000\000\000\000\000\000\000O\000\000\000\000\000\000\000\000\000\000\000\000\000\000\000P\000\000\000\000\000\000\000\000\000\000\000\000\000\000\000Q\000\000\000\000\000\000\000\000\000\000\000\000\000\000\000R\000\000\000\000\000\000\000\000\000\000\000\000\000\000\000S\000\000\000\000\000\000\000\000\000\000\000\000\000\000\000T\000\000\000\000\000\000\000\000\000\000\000\000\000\000\000U\000\000\000\000\000\000\000\000\000\000\000\000\000\000\000V\000\000\000\000\000\000\000\000\000\000\000\000\000\000\000W\000\000\000\000\000\000\000\000\000\000\000\000\000\000\000X\000\000\000\000\000\000\000\000\000\000\000\000\000\000\000Y\000\000\000\000\000\000\000\000\000\000\000\000\000\000\000Z\000\000\000\000\000\000\000\000\000\000\000\000\000\000\000[\000\000\000\000\000\000\000\000\000\000\000\000\000\000\000\\\000\000\000\000\000\000\000\000\000\000\000\000\000\000\000]\000\000\000\000\000\000\000\000\000\000\000\000\000\000\000^\000\000\000\000\000\000\000\000\000\000\000\000\000\000\000_\000\000\000\000\000\000\000\000\000\000\000\000\000\000\000`\000\000\000\000\000\000\000\000\000\000\000\000\000\000\000a\000\000\000\000\000\000\000\000\000\000\000\000\000\000\000b\000\000\000\000\000\000\000\000\000\000\000\000\000\000\000c\000\000\000\000\000\000\000\000\000\000\000\000\000\000\000d\000\000\000\000\000\000\000\000\000\000\000\000\000\000\000e\000\000\000\000\000\000\000\000\000\000\000\000\000\000\000f\000\000\000\000\000\000\000\000\000\000\000\000\000\000\000g\000\000\000\000\000\000\000\000\000\000\000\000\000\000\000h\000\000\000\000\000\000\000\000\000\000\000\000\000\000\000i\000\000\000\000\000\000\000\000\000\000\000\000\000\000\000j\000\000\000\000\000\000\000\000\000\000\000\000\000\000\000k\000\000\000\000\000\000\000\000\000\000\000\000\000\000\000l\000\000\000\000\000\000\000\000\000\000\000\000\000\000\000m\000\000\000\000\000\000\000\000\000\000\000\000\000\000\000n\000\000\000\000\000\000\000\000\000\000\000\000\000\000\000o\000\000\000\000\000\000\000\000\000\000\000\000\000\000\000p\000\000\000\000\000\000\000\000\000\000\000\000\000\000\000q\000\000\000\000\000\000\000\000\000\000\000\000\000\000\000r\000\000\000\000\000\000\000\000\000\000\000\000\000\000\000s\000\000\000\000\000\000\000\000\000\000\000\000\000\000\000t\000\000\000\000\000\000\000\000\000\000\000\000\000\000\000u\000\000\000\000\000\000\000\000\000\000\000\000\000\000\000v\000\000\000\000\000\000\000\000\000\000\000\000\000\000\000w\000\000\000\000\000\000\000\000\000\000\000\000\000\000\000x\000\000\000\000\000\000\000\000\000\000\000\000\000\000\000y\000\000\000\000\000\000\000\000\000\000\000\000\000\000\000z\000\000\000\000\000\000\000\000\000\000\000\000\000\000\000{\000\000\000\000\000\000\000\000\000\000\000\000\000\000\000|\000\000\000\000\000\000\000\000\000\000\000\000\000\000\000}\000\000\000\000\000\000\000\000\000\000\000\000\000\000\000~\000\000\000\000\000\000\000\000\000\000\000\000\000\000\000\177\000\000\000\000\000\000\000\000\000\000\000\000\000\000\000\200\000\000\000\000\000\000\000\000\000\000\000\000\000\000\000\201\000\000\000\000\000\000\000\000\000\000\000\000\000\000\000\202\000\000\000\000\000\000\000\000\000\000\000\000\000\000\000\203\000\000\000\000\000\000\000\000\000\000\000\000\000\000\000\204\000\000\000\000\000\000\000\000\000\000\000\000\000\000\000\205\000\000\000\000\000\000\000\000\000\000\000\000\000\000\000\206\000\000\000\000\000\000\000\000\000\000\000\000\000\000\000\207\000\000\000\000\000\000\000\000\000\000\000\000\000\000\000\210\000\000\000\000\000\000\000\000\000\000\000\000\000\000\000\211\000\000\000\000\000\000\000\000\000\000\000\000\000\000\000\212\000\000\000\000\000\000\000\000\000\000\000\000\000\000\000\213\000\000\000\000\000\000\000\000\000\000\000\000\000\000\000\214\000\000\000\000\000\000\000\000\000\000\000\000\000\000\000\215\000\000\000\000\000\000\000\000\000\000\000\000\000\000\000\216\000\000\000\000\000\000\000\000\000\000\000\000\000\000\000\217\000\000\000\000\000\000\000\000\000\000\000\000\000\000\000\220\000\000\000\000\000\000\000\000\000\000\000\000\000\000\000\221\000\000\000\000\000\000\000\000\000\000\000\000\000\000\000\222\000\000\000\000\000\000\000\000\000\000\000\000\000\000\000\223\000\000\000\000\000\000\000\000\000\000\000\000\000\000\000\224\000\000\000\000\000\000\000\000\000\000\000\000\000\000\000\225\000\000\000\000\000\000\000\000\000\000\000\000\000\000\000\226\000\000\000\000\000\000\000\000\000\000\000\000\000\000\000\227\000\000\000\000\000\000\000\000\000\000\000\000\000\000\000\230\000\000\000\000\000\000\000\000\000\000\000\000\000\000\000\231\000\000\000\000\000\000\000\000\000\000\000\000\000\000\000\232\000\000\000\000\000\000\000\000\000\000\000\000\000\000\000\233\000\000\000\000\000\000\000\000\000\000\000\000\000\000\000\234\000\000\000\000\000\000\000\000\000\000\000\000\000\000\000\235\000\000\000\000\000\000\000\000\000\000\000\000\000\000\000\236\000\000\000\000\000\000\000\000\000\000\000\000\000\000\000\237\000\000\000\000\000\000\000\000\000\000\000\000\000\000\000\240\000\000\000\000\000\000\000\000\000\000\000\000\000\000\000\241\000\000\000\000\000\000\000\000\000\000\000\000\000\000\000\242\000\000\000\000\000\000\000\000\000\000\000\000\000\000\000\243\000\000\000\000\000\000\000\000\000\000\000\000\000\000\000\244\000\000\000\000\000\000\000\000\000\000\000\000\000\000\000\245\000\000\000\000\000\000\000\000\000\000\000\000\000\000\000\246\000\000\000\000\000\000\000\000\000\000\000\000\000\000\000\247\000\000\000\000\000\000\000\000\000\000\000\000\000\000\000\250\000\000\000\000\000\000\000\000\000\000\000\000\000\000\000\251\000\000\000\000\000\000\000\000\000\000\000\000\000\000\000\252\000\000\000\000\000\000\000\000\000\000\000\000\000\000\000\253\000\000\000\000\000\000\000\000\000\000\000\000\000\000\000\254\000\000\000\000\000\000\000\000\000\000\000\000\000\000\000\255\000\000\000\000\000\000\000\000\000\000\000\000\000\000\000\256\000\000\000\000\000\000\000\000\000\000\000\000\000\000\000\257\000\000\000\000\000\000\000\000\000\000\000\000\000\000\000\260\000\000\000\000\000\000\000\000\000\000\000\000\000\000\000\261\000\000\000\000\000\000\000\000\000\000\000\000\000\000\000\262\000\000\000\000\000\000\000\000\000\000\000\000\000\000\000\263\000\000\000\000\000\000\000\000\000\000\000\000\000\000\000\264\000\000\000\000\000\000\000\000\000\000\000\000\000\000\000\265\000\000\000\000\000\000\000\000\000\000\000\000\000\000\000\266\000\000\000\000\000\000\000\000\000\000\000\000\000\000\000\267\000\000\000\000\000\000\000\000\000\000\000\000\000\000\000\270\000\000\000\000\000\000\000\000\000\000\000\000\000\000\000\271\000\000\000\000\000\000\000\000\000\000\000\000\000\000\000\272\000\000\000\000\000\000\000\000\000\000\000\000\000\000\000\273\000\000\000\000\000\000\000\000\000\000\000\000\000\000\000\274\000\000\000\000\000\000\000\000\000\000\000\000\000\000\000\275\000\000\000\000\000\000\000\000\000\000\000\000\000\000\000\276\000\000\000\000\000\000\000\000\000\000\000\000\000\000\000\277\000\000\000\000\000\000\000\000\000\000\000\000\000\000\000\300\000\000\000\000\000\000\000\000\000\000\000\000\000\000\000\301\000\000\000\000\000\000\000\000\000\000\000\000\000\000\000\302\000\000\000\000\000\000\000\000\000\000\000\000\000\000\000\303\000\000\000\000\000\000\000\000\000\000\000\000\000\000\000\304\000\000\000\000\000\000\000\000\000\000\000\000\000\000\000\305\000\000\000\000\000\000\000\000\000\000\000\000\000\000\000\306\000\000\000\000\000\000\000\000\000\000\000\000\000\000\000\307\000\000\000\000\000\000\000\000\000\000\000\000\000\000\000\310\000\000\000\000\000\000\000\000\000\000\000\000\000\000\000\311\000\000\000\000\000\000\000\000\000\000\000\000\000\000\000\312\000\000\000\000\000\000\000\000\000\000\000\000\000\000\000\313\000\000\000\000\000\000\000\000\000\000\000\000\000\000\000\314\000\000\000\000\000\000\000\000\000\000\000\000\000\000\000\315\000\000\000\000\000\000\000\000\000\000\000\000\000\000\000\316\000\000\000\000\000\000\000\000\000\000\000\000\000\000\000\317\000\000\000\000\000\000\000\000\000\000\000\000\000\000\000\320\000\000\000\000\000\000\000\000\000\000\000\000\000\000\000\321\000\000\000\000\000\000\000\000\000\000\000\000\000\000\000\322\000\000\000\000\000\000\000\000\000\000\000\000\000\000\000\323\000\000\000\000\000\000\000\000\000\000\000\000\000\000\000\324\000\000\000\000\000\000\000\000\000\000\000\000\000\000\000\325\000\000\000\000\000\000\000\000\000\000\000\000\000\000\000\326\000\000\000\000\000\000\000\000\000\000\000\000\000\000\000\327\000\000\000\000\000\000\000\000\000\000\000\000\000\000\000\330\000\000\000\000\000\000\000\000\000\000\000\000\000\000\000\331\000\000\000\000\000\000\000\000\000\000\000\000\000\000\000\332\000\000\000\000\000\000\000\000\000\000\000\000\000\000\000\333\000\000\000\000\000\000\000\000\000\000\000\000\000\000\000\334\000\000\000\000\000\000\000\000\000\000\000\000\000\000\000\335\000\000\000\000\000\000\000\000\000\000\000\000\000\000\000\336\000\000\000\000\000\000\000\000\000\000\000\000\000\000\000\337\000\000\000\000\000\000\000\000\000\000\000\000\000\000\000\340\000\000\000\000\000\000\000\000\000\000\000\000\000\000\000\341\000\000\000\000\000\000\000\000\000\000\000\000\000\000\000\342\000\000\000\000\000\000\000\000\000\000\000\000\000\000\000\343\000\000\000\000\000\000\000\000\000\000\000\000\000\000\000\344\000\000\000\000\000\000\000\000\000\000\000\000\000\000\000\345\000\000\000\000\000\000\000\000\000\000\000\000\000\000\000\346\000\000\000\000\000\000\000\000\000\000\000\000\000\000\000\347\000\000\000\000\000\000\000\000\000\000\000\000\000\000\000\350\000\000\000\000\000\000\000\000\000\000\000\000\000\000\000\351\000\000\000\000\000\000\000\000\000\000\000\000\000\000\000\352\000\000\000\000\000\000\000\000\000\000\000\000\000\000\000\353\000\000\000\000\000\000\000\000\000\000\000\000\000\000\000\354\000\000\000\000\000\000\000\000\000\000\000\000\000\000\000\355\000\000\000\000\000\000\000\000\000\000\000\000\000\000\000\356\000\000\000\000\000\000\000\000\000\000\000\000\000\000\000\357\000\000\000\000\000\000\000\000\000\000\000\000\000\000\000\360\000\000\000\000\000\000\000\000\000\000\000\000\000\000\000\361\000\000\000\000\000\000\000\000\000\000\000\000\000\000\000\362\000\000\000\000\000\000\000\000\000\000\000\000\000\000\000\363\000\000\000\000\000\000\000\000\000\000\000\000\000\000\000\364\000\000\000\000\000\000\000\000\000\000\000\000\000\000\000\365\000\000\000\000\000\000\000\000\000\000\000\000\000\000\000\366\000\000\000\000\000\000\000\000\000\000\000\000\000\000\000\367\000\000\000\000\000\000\000\000\000\000\000\000\000\000\000\370\000\000\000\000\000\000\000\000\000\000\000\000\000\000\000\371\000\000\000\000\000\000\000\000\000\000\000\000\000\000\000\372\000\000\000\000\000\000\000\000\000\000\000\000\000\000\000\373\000\000\000\000\000\000\000\000\000\000\000\000\000\000\000\374\000\000\000\000\000\000\000\000\000\000\000\000\000\000\000\375\000\000\000\000\000\000\000\000\000\000\000\000\000\000\000\376\000\000\000\000\000\000\000\000\000\000\000\000\000\000\000\377\000\000\000\000\000\000\000\000\000\000\000\000\000\000\000\000\001\000\000\000\000\000\000\000\000\000\000\000\000\000\000\001\001\000\000\000\000\000\000\000\000\000\000\000\000\000\000\002\001\000\000\000\000\000\000\000\000\000\000\000\000\000\000\003\001\000\000\000\000\000\000\000\000\000\000\000\000\000\000\004\001\000\000\000\000\000\000\000\000\000\000\000\000\000\000\005\001\000\000\000\000\000\000\000\000\000\000\000\000\000\000\006\001\000\000\000\000\000\000\000\000\000\000\000\000\000\000\007\001\000\000\000\000\000\000\000\000\000\000\000\000\000\000\010\001\000\000\000\000\000\000\000\000\000\000\000\000\000\000\t\001\000\000\000\000\000\000\000\000\000\000\000\000\000\000\n\001\000\000\000\000\000\000\000\000\000\000\000\000\000\000\013\001\000\000\000\000\000\000\000\000\000\000\000\000\000\000\014\001\000\000\000\000\000\000\000\000\000\000\000\000\000\000\r\001\000\000\000\000\000\000\000\000\000\000\000\000\000\000\016\001\000\000\000\000\000\000\000\000\000\000\000\000\000\000\017\001\000\000\000\000\000\000\000\000\000\000\000\000\000\000\020\001\000\000\000\000\000\000\000\000\000\000\000\000\000\000\021\001\000\000\000\000\000\000\000\000\000\000\000\000\000\000\022\001\000\000\000\000\000\000\000\000\000\000\000\000\000\000\023\001\000\000\000\000\000\000\000\000\000\000\000\000\000\000\024\001\000\000\000\000\000\000\000\000\000\000\000\000\000\000\025\001\000\000\000\000\000\000\000\000\000\000\000\000\000\000\026\001\000\000\000\000\000\000\000\000\000\000\000\000\000\000\027\001\000\000\000\000\000\000\000\000\000\000\000\000\000\000\030\001\000\000\000\000\000\000\000\000\000\000\000\000\000\000\031\001\000\000\000\000\000\000\000\000\000\000\000\000\000\000\032\001\000\000\000\000\000\000\000\000\000\000\000\000\000\000\033\001\000\000\000\000\000\000\000\000\000\000\000\000\000\000\034\001\000\000\000\000\000\000\000\000\000\000\000\000\000\000\035\001\000\000\000\000\000\000\000\000\000\000\000\000\000\000\036\001\000\000\000\000\000\000\000\000\000\000\000\000\000\000\037\001\000\000\000\000\000\000\000\000\000\000\000\000\000\000 \001\000\000\000\000\000\000\000\000\000\000\000\000\000\000!\001\000\000\000\000\000\000\000\000\000\000\000\000\000\000\"\001\000\000\000\000\000\000\000\000\000\000\000\000\000\000#\001\000\000\000\000\000\000\000\000\000\000\000\000\000\000$\001\000\000\000\000\000\000\000\000\000\000\000\000\000\000%\001\000\000\000\000\000\000\000\000\000\000\000\000\000\000&\001\000\000\000\000\000\000\000\000\000\000\000\000\000\000\'\001\000\000\000\000\000\000\000\000\000\000\000\000\000\000(\001\000\000\000\000\000\000\000\000\000\000\000\000\000\000)\001\000\000\000\000\000\000\000\000\000\000\000\000\000\000*\001\000\000\000\000\000\000\000\000\000\000\000\000\000\000+\001\000\000\000\000\000\000\000\000\000\000\000\000\000\000,\001\000\000\000\000\000\000\000\000\000\000\000\000\000\000-\001\000\000\000\000\000\000\000\000\000\000\000\000\000\000.\001\000\000\000\000\000\000\000\000\000\000\000\000\000\000/\001\000\000\000\000\000\000\000\000\000\000\000\000\000\0000\001\000\000\000\000\000\000\000\000\000\000\000\000\000\0001\001\000\000\000\000\000\000\000\000\000\000\000\000\000\0002\001\000\000\000\000\000\000\000\000\000\000\000\000\000\0003\001\000\000\000\000\000\000\000\000\000\000\000\000\000\0004\001\000\000\000\000\000\000\000\000\000\000\000\000\000\0005\001\000\000\000\000\000\000\000\000\000\000\000\000\000\0006\001\000\000\000\000\000\000\000\000\000\000\000\000\000\0007\001\000\000\000\000\000\000\000\000\000\000\000\000\000\0008\001\000\000\000\000\000\000\000\000\000\000\000\000\000\0009\001\000\000\000\000\000\000\000\000\000\000\000\000\000\000:\001\000\000\000\000\000\000\000\000\000\000\000\000\000\000;\001\000\000\000\000\000\000\000\000\000\000\000\000\000\000<\001\000\000\000\000\000\000\000\000\000\000\000\000\000\000=\001\000\000\000\000\000\000\000\000\000\000\000\000\000\000>\001\000\000\000\000\000\000\000\000\000\000\000\000\000\000?\001\000\000\000\000\000\000\000\000\000\000\000\000\000\000@\001\000\000\000\000\000\000\000\000\000\000\000\000\000\000A\001\000\000\000\000\000\000\000\000\000\000\000\000\000\000B\001\000\000\000\000\000\000\000\000\000\000\000\000\000\000C\001\000\000\000\000\000\000\000\000\000\000\000\000\000\000D\001\000\000\000\000\000\000\000\000\000\000\000\000\000\000E\001\000\000\000\000\000\000\000\000\000\000\000\000\000\000F\001\000\000\000\000\000\000\000\000\000\000\000\000\000\000G\001\000\000\000\000\000\000\000\000\000\000\000\000\000\000H\001\000\000\000\000\000\000\000\000\000\000\000\000\000\000I\001\000\000\000\000\000\000\000\000\000\000\000\000\000\000J\001\000\000\000\000\000\000\000\000\000\000\000\000\000\000K\001\000\000\000\000\000\000\000\000\000\000\000\000\000\000L\001\000\000\000\000\000\000\000\000\000\000\000\000\000\000M\001\000\000\000\000\000\000\000\000\000\000\000\000\000\000N\001\000\000\000\000\000\000\000\000\000\000\000\000\000\000O\001\000\000\000\000\000\000\000\000\000\000\000\000\000\000P\001\000\000\000\000\000\000\000\000\000\000\000\000\000\000Q\001\000\000\000\000\000\000\000\000\000\000\000\000\000\000R\001\000\000\000\000\000\000\000\000\000\000\000\000\000\000S\001\000\000\000\000\000\000\000\000\000\000\000\000\000\000T\001\000\000\000\000\000\000\000\000\000\000\000\000\000\000U\001\000\000\000\000\000\000\000\000\000\000\000\000\000\000V\001\000\000\000\000\000\000\000\000\000\000\000\000\000\000W\001\000\000\000\000\000\000\000\000\000\000\000\000\000\000X\001\000\000\000\000\000\000\000\000\000\000\000\000\000\000Y\001\000\000\000\000\000\000\000\000\000\000\000\000\000\000Z\001\000\000\000\000\000\000\000\000\000\000\000\000\000\000[\001\000\000\000\000\000\000\000\000\000\000\000\000\000\000\\\001\000\000\000\000\000\000\000\000\000\000\000\000\000\000]\001\000\000\000\000\000\000\000\000\000\000\000\000\000\000^\001\000\000\000\000\000\000\000\000\000\000\000\000\000\000_\001\000\000\000\000\000\000\000\000\000\000\000\000\000\000`\001\000\000\000\000\000\000\000\000\000\000\000\000\000\000a\001\000\000\000\000\000\000\000\000\000\000\000\000\000\000b\001\000\000\000\000\000\000\000\000\000\000\000\000\000\000c\001\000\000\000\000\000\000\000\000\000\000\000\000\000\000d\001\000\000\000\000\000\000\000\000\000\000\000\000\000\000e\001\000\000\000\000\000\000\000\000\000\000\000\000\000\000f\001\000\000\000\000\000\000\000\000\000\000\000\000\000\000g\001\000\000\000\000\000\000\000\000\000\000\000\000\000\000h\001\000\000\000\000\000\000\000\000\000\000\000\000\000\000i\001\000\000\000\000\000\000\000\000\000\000\000\000\000\000j\001\000\000\000\000\000\000\000\000\000\000\000\000\000\000k\001\000\000\000\000\000\000\000\000\000\000\000\000\000\000l\001\000\000\000\000\000\000\000\000\000\000\000\000\000\000m\001\000\000\000\000\000\000\000\000\000\000\000\000\000\000n\001\000\000\000\000\000\000\000\000\000\000\000\000\000\000o\001\000\000\000\000\000\000\000\000\000\000\000\000\000\000p\001\000\000\000\000\000\000\000\000\000\000\000\000\000\000q\001\000\000\000\000\000\000\000\000\000\000\000\000\000\000r\001\000\000\000\000\000\000\000\000\000\000\000\000\000\000s\001\000\000\000\000\000\000\000\000\000\000\000\000\000\000t\001\000\000\000\000\000\000\000\000\000\000\000\000\000\000u\001\000\000\000\000\000\000\000\000\000\000\000\000\000\000v\001\000\000\000\000\000\000\000\000\000\000\000\000\000\000w\001\000\000\000\000\000\000\000\000\000\000\000\000\000\000x\001\000\000\000\000\000\000\000\000\000\000\000\000\000\000y\001\000\000\000\000\000\000\000\000\000\000\000\000\000\000z\001\000\000\000\000\000\000\000\000\000\000\000\000\000\000{\001\000\000\000\000\000\000\000\000\000\000\000\000\000\000|\001\000\000\000\000\000\000\000\000\000\000\000\000\000\000}\001\000\000\000\000\000\000\000\000\000\000\000\000\000\000~\001\000\000\000\000\000\000\000\000\000\000\000\000\000\000\177\001\000\000\000\000\000\000\000\000\000\000\000\000\000\000\200\001\000\000\000\000\000\000\000\000\000\000\000\000\000\000\201\001\000\000\000\000\000\000\000\000\000\000\000\000\000\000\202\001\000\000\000\000\000\000\000\000\000\000\000\000\000\000\203\001\000\000\000\000\000\000\000\000\000\000\000\000\000\000\204\001\000\000\000\000\000\000\000\000\000\000\000\000\000\000\205\001\000\000\000\000\000\000\000\000\000\000\000\000\000\000\206\001\000\000\000\000\000\000\000\000\000\000\000\000\000\000\207\001\000\000\000\000\000\000\000\000\000\000\000\000\000\000\210\001\000\000\000\000\000\000\000\000\000\000\000\000\000\000\211\001\000\000\000\000\000\000\000\000\000\000\000\000\000\000\212\001\000\000\000\000\000\000\000\000\000\000\000\000\000\000\213\001\000\000\000\000\000\000\000\000\000\000\000\000\000\000\214\001\000\000\000\000\000\000\000\000\000\000\000\000\000\000\215\001\000\000\000\000\000\000\000\000\000\000\000\000\000\000\216\001\000\000\000\000\000\000\000\000\000\000\000\000\000\000\217\001\000\000\000\000\000\000\000\000\000\000\000\000\000\000\220\001\000\000\000\000\000\000\000\000\000\000\000\000\000\000\221\001\000\000\000\000\000\000\000\000\000\000\000\000\000\000\222\001\000\000\000\000\000\000\000\000\000\000\000\000\000\000\223\001\000\000\000\000\000\000\000\000\000\000\000\000\000\000\224\001\000\000\000\000\000\000\000\000\000\000\000\000\000\000\225\001\000\000\000\000\000\000\000\000\000\000\000\000\000\000\226\001\000\000\000\000\000\000\000\000\000\000\000\000\000\000\227\001\000\000\000\000\000\000\000\000\000\000\000\000\000\000\230\001\000\000\000\000\000\000\000\000\000\000\000\000\000\000\231\001\000\000\000\000\000\000\000\000\000\000\000\000\000\000\232\001\000\000\000\000\000\000\000\000\000\000\000\000\000\000\233\001\000\000\000\000\000\000\000\000\000\000\000\000\000\000\234\001\000\000\000\000\000\000\000\000\000\000\000\000\000\000\235\001\000\000\000\000\000\000\000\000\000\000\000\000\000\000\236\001\000\000\000\000\000\000\000\000\000\000\000\000\000\000\237\001\000\000\000\000\000\000\000\000\000\000\000\000\000\000\240\001\000\000\000\000\000\000\000\000\000\000\000\000\000\000\241\001\000\000\000\000\000\000\000\000\000\000\000\000\000\000\242\001\000\000\000\000\000\000\000\000\000\000\000\000\000\000\243\001\000\000\000\000\000\000\000\000\000\000\000\000\000\000\244\001\000\000\000\000\000\000\000\000\000\000\000\000\000\000\245\001\000\000\000\000\000\000\000\000\000\000\000\000\000\000\246\001\000\000\000\000\000\000\000\000\000\000\000\000\000\000\247\001\000\000\000\000\000\000\000\000\000\000\000\000\000\000\250\001\000\000\000\000\000\000\000\000\000\000\000\000\000\000\251\001\000\000\000\000\000\000\000\000\000\000\000\000\000\000\252\001\000\000\000\000\000\000\000\000\000\000\000\000\000\000\253\001\000\000\000\000\000\000\000\000\000\000\000\000\000\000\254\001\000\000\000\000\000\000\000\000\000\000\000\000\000\000\255\001\000\000\000\000\000\000\000\000\000\000\000\000\000\000\256\001\000\000\000\000\000\000\000\000\000\000\000\000\000\000\257\001\000\000\000\000\000\000\000\000\000\000\000\000\000\000\260\001\000\000\000\000\000\000\000\000\000\000\000\000\000\000\261\001\000\000\000\000\000\000\000\000\000\000\000\000\000\000\262\001\000\000\000\000\000\000\000\000\000\000\000\000\000\000\263\001\000\000\000\000\000\000\000\000\000\000\000\000\000\000\264\001\000\000\000\000\000\000\000\000\000\000\000\000\000\000\265\001\000\000\000\000\000\000\000\000\000\000\000\000\000\000\266\001\000\000\000\000\000\000\000\000\000\000\000\000\000\000\267\001\000\000\000\000\000\000\000\000\000\000\000\000\000\000\270\001\000\000\000\000\000\000\000\000\000\000\000\000\000\000\271\001\000\000\000\000\000\000\000\000\000\000\000\000\000\000\272\001\000\000\000\000\000\000\000\000\000\000\000\000\000\000\273\001\000\000\000\000\000\000\000\000\000\000\000\000\000\000\274\001\000\000\000\000\000\000\000\000\000\000\000\000\000\000\275\001\000\000\000\000\000\000\000\000\000\000\000\000\000\000\276\001\000\000\000\000\000\000\000\000\000\000\000\000\000\000\277\001\000\000\000\000\000\000\000\000\000\000\000\000\000\000\300\001\000\000\000\000\000\000\000\000\000\000\000\000\000\000\301\001\000\000\000\000\000\000\000\000\000\000\000\000\000\000\302\001\000\000\000\000\000\000\000\000\000\000\000\000\000\000\303\001\000\000\000\000\000\000\000\000\000\000\000\000\000\000\304\001\000\000\000\000\000\000\000\000\000\000\000\000\000\000\305\001\000\000\000\000\000\000\000\000\000\000\000\000\000\000\306\001\000\000\000\000\000\000\000\000\000\000\000\000\000\000\307\001\000\000\000\000\000\000\000\000\000\000\000\000\000\000\310\001\000\000\000\000\000\000\000\000\000\000\000\000\000\000\311\001\000\000\000\000\000\000\000\000\000\000\000\000\000\000\312\001\000\000\000\000\000\000\000\000\000\000\000\000\000\000\313\001\000\000\000\000\000\000\000\000\000\000\000\000\000\000\314\001\000\000\000\000\000\000\000\000\000\000\000\000\000\000\315\001\000\000\000\000\000\000\000\000\000\000\000\000\000\000\316\001\000\000\000\000\000\000\000\000\000\000\000\000\000\000\317\001\000\000\000\000\000\000\000\000\000\000\000\000\000\000\320\001\000\000\000\000\000\000\000\000\000\000\000\000\000\000\321\001\000\000\000\000\000\000\000\000\000\000\000\000\000\000\322\001\000\000\000\000\000\000\000\000\000\000\000\000\000\000\323\001\000\000\000\000\000\000\000\000\000\000\000\000\000\000\324\001\000\000\000\000\000\000\000\000\000\000\000\000\000\000\325\001\000\000\000\000\000\000\000\000\000\000\000\000\000\000\326\001\000\000\000\000\000\000\000\000\000\000\000\000\000\000\327\001\000\000\000\000\000\000\000\000\000\000\000\000\000\000\330\001\000\000\000\000\000\000\000\000\000\000\000\000\000\000\331\001\000\000\000\000\000\000\000\000\000\000\000\000\000\000\332\001\000\000\000\000\000\000\000\000\000\000\000\000\000\000\333\001\000\000\000\000\000\000\000\000\000\000\000\000\000\000\334\001\000\000\000\000\000\000\000\000\000\000\000\000\000\000\335\001\000\000\000\000\000\000\000\000\000\000\000\000\000\000\336\001\000\000\000\000\000\000\000\000\000\000\000\000\000\000\337\001\000\000\000\000\000\000\000\000\000\000\000\000\000\000\340\001\000\000\000\000\000\000\000\000\000\000\000\000\000\000\341\001\000\000\000\000\000\000\000\000\000\000\000\000\000\000\342\001\000\000\000\000\000\000\000\000\000\000\000\000\000\000\343\001\000\000\000\000\000\000\000\000\000\000\000\000\000\000\344\001\000\000\000\000\000\000\000\000\000\000\000\000\000\000\345\001\000\000\000\000\000\000\000\000\000\000\000\000\000\000\346\001\000\000\000\000\000\000\000\000\000\000\000\000\000\000\347\001\000\000\000\000\000\000\000\000\000\000\000\000\000\000\350\001\000\000\000\000\000\000\000\000\000\000\000\000\000\000\351\001\000\000\000\000\000\000\000\000\000\000\000\000\000\000\352\001\000\000\000\000\000\000\000\000\000\000\000\000\000\000\353\001\000\000\000\000\000\000\000\000\000\000\000\000\000\000\354\001\000\000\000\000\000\000\000\000\000\000\000\000\000\000\355\001\000\000\000\000\000\000\000\000\000\000\000\000\000\000\356\001\000\000\000\000\000\000\000\000\000\000\000\000\000\000\357\001\000\000\000\000\000\000\000\000\000\000\000\000\000\000\360\001\000\000\000\000\000\000\000\000\000\000\000\000\000\000\361\001\000\000\000\000\000\000\000\000\000\000\000\000\000\000\362\001\000\000\000\000\000\000\000\000\000\000\000\000\000\000\363\001\000\000\000\000\000\000\000\000\000\000\000\000\000\000\364\001\000\000\000\000\000\000\000\000\000\000\000\000\000\000\365\001\000\000\000\000\000\000\000\000\000\000\000\000\000\000\366\001\000\000\000\000\000\000\000\000\000\000\000\000\000\000\367\001\000\000\000\000\000\000\000\000\000\000\000\000\000\000\370\001\000\000\000\000\000\000\000\000\000\000\000\000\000\000\371\001\000\000\000\000\000\000\000\000\000\000\000\000\000\000\372\001\000\000\000\000\000\000\000\000\000\000\000\000\000\000\373\001\000\000\000\000\000\000\000\000\000\000\000\000\000\000\374\001\000\000\000\000\000\000\000\000\000\000\000\000\000\000\375\001\000\000\000\000\000\000\000\000\000\000\000\000\000\000\376\001\000\000\000\000\000\000\000\000\000\000\000\000\000\000\377\001\000\000\000\000\000\000\000\000\000\000\000\000\000\000\000\002\000\000\000\000\000\000\000\000\000\000\000\000\000\000\001\002\000\000\000\000\000\000\000\000\000\000\000\000\000\000\002\002\000\000\000\000\000\000\000\000\000\000\000\000\000\000\003\002\000\000\000\000\000\000\000\000\000\000\000\000\000\000\004\002\000\000\000\000\000\000\000\000\000\000\000\000\000\000\005\002\000\000\000\000\000\000\000\000\000\000\000\000\000\000\006\002\000\000\000\000\000\000\000\000\000\000\000\000\000\000\007\002\000\000\000\000\000\000\000\000\000\000\000\000\000\000\010\002\000\000\000\000\000\000\000\000\000\000\000\000\000\000\t\002\000\000\000\000\000\000\000\000\000\000\000\000\000\000\n\002\000\000\000\000\000\000\000\000\000\000\000\000\000\000\013\002\000\000\000\000\000\000\000\000\000\000\000\000\000\000\014\002\000\000\000\000\000\000\000\000\000\000\000\000\000\000\r\002\000\000\000\000\000\000\000\000\000\000\000\000\000\000\016\002\000\000\000\000\000\000\000\000\000\000\000\000\000\000\017\002\000\000\000\000\000\000\000\000\000\000\000\000\000\000\020\002\000\000\000\000\000\000\000\000\000\000\000\000\000\000\021\002\000\000\000\000\000\000\000\000\000\000\000\000\000\000\022\002\000\000\000\000\000\000\000\000\000\000\000\000\000\000\023\002\000\000\000\000\000\000\000\000\000\000\000\000\000\000\024\002\000\000\000\000\000\000\000\000\000\000\000\000\000\000\025\002\000\000\000\000\000\000\000\000\000\000\000\000\000\000\026\002\000\000\000\000\000\000\000\000\000\000\000\000\000\000\027\002\000\000\000\000\000\000\000\000\000\000\000\000\000\000\030\002\000\000\000\000\000\000\000\000\000\000\000\000\000\000\031\002\000\000\000\000\000\000\000\000\000\000\000\000\000\000\032\002\000\000\000\000\000\000\000\000\000\000\000\000\000\000\033\002\000\000\000\000\000\000\000\000\000\000\000\000\000\000\034\002\000\000\000\000\000\000\000\000\000\000\000\000\000\000\035\002\000\000\000\000\000\000\000\000\000\000\000\000\000\000\036\002\000\000\000\000\000\000\000\000\000\000\000\000\000\000\037\002\000\000\000\000\000\000\000\000\000\000\000\000\000\000 \002\000\000\000\000\000\000\000\000\000\000\000\000\000\000!\002\000\000\000\000\000\000\000\000\000\000\000\000\000\000\"\002\000\000\000\000\000\000\000\000\000\000\000\000\000\000#\002\000\000\000\000\000\000\000\000\000\000\000\000\000\000$\002\000\000\000\000\000\000\000\000\000\000\000\000\000\000%\002\000\000\000\000\000\000\000\000\000\000\000\000\000\000&\002\000\000\000\000\000\000\000\000\000\000\000\000\000\000\'\002\000\000\000\000\000\000\000\000\000\000\000\000\000\000(\002\000\000\000\000\000\000\000\000\000\000\000\000\000\000)\002\000\000\000\000\000\000\000\000\000\000\000\000\000\000*\002\000\000\000\000\000\000\000\000\000\000\000\000\000\000+\002\000\000\000\000\000\000\000\000\000\000\000\000\000\000,\002\000\000\000\000\000\000\000\000\000\000\000\000\000\000-\002\000\000\000\000\000\000\000\000\000\000\000\000\000\000.\002\000\000\000\000\000\000\000\000\000\000\000\000\000\000/\002\000\000\000\000\000\000\000\000\000\000\000\000\000\0000\002\000\000\000\000\000\000\000\000\000\000\000\000\000\0001\002\000\000\000\000\000\000\000\000\000\000\000\000\000\0002\002\000\000\000\000\000\000\000\000\000\000\000\000\000\0003\002\000\000\000\000\000\000\000\000\000\000\000\000\000\0004\002\000\000\000\000\000\000\000\000\000\000\000\000\000\0005\002\000\000\000\000\000\000\000\000\000\000\000\000\000\0006\002\000\000\000\000\000\000\000\000\000\000\000\000\000\0007\002\000\000\000\000\000\000\000\000\000\000\000\000\000\0008\002\000\000\000\000\000\000\000\000\000\000\000\000\000\0009\002\000\000\000\000\000\000\000\000\000\000\000\000\000\000:\002\000\000\000\000\000\000\000\000\000\000\000\000\000\000;\002\000\000\000\000\000\000\000\000\000\000\000\000\000\000<\002\000\000\000\000\000\000\000\000\000\000\000\000\000\000=\002\000\000\000\000\000\000\000\000\000\000\000\000\000\000>\002\000\000\000\000\000\000\000\000\000\000\000\000\000\000?\002\000\000\000\000\000\000\000\000\000\000\000\000\000\000@\002\000\000\000\000\000\000\000\000\000\000\000\000\000\000A\002\000\000\000\000\000\000\000\000\000\000\000\000\000\000B\002\000\000\000\000\000\000\000\000\000\000\000\000\000\000C\002\000\000\000\000\000\000\000\000\000\000\000\000\000\000D\002\000\000\000\000\000\000\000\000\000\000\000\000\000\000E\002\000\000\000\000\000\000\000\000\000\000\000\000\000\000F\002\000\000\000\000\000\000\000\000\000\000\000\000\000\000G\002\000\000\000\000\000\000\000\000\000\000\000\000\000\000H\002\000\000\000\000\000\000\000\000\000\000\000\000\000\000I\002\000\000\000\000\000\000\000\000\000\000\000\000\000\000J\002\000\000\000\000\000\000\000\000\000\000\000\000\000\000K\002\000\000\000\000\000\000\000\000\000\000\000\000\000\000L\002\000\000\000\000\000\000\000\000\000\000\000\000\000\000M\002\000\000\000\000\000\000\000\000\000\000\000\000\000\000N\002\000\000\000\000\000\000\000\000\000\000\000\000\000\000O\002\000\000\000\000\000\000\000\000\000\000\000\000\000\000P\002\000\000\000\000\000\000\000\000\000\000\000\000\000\000Q\002\000\000\000\000\000\000\000\000\000\000\000\000\000\000R\002\000\000\000\000\000\000\000\000\000\000\000\000\000\000S\002\000\000\000\000\000\000\000\000\000\000\000\000\000\000T\002\000\000\000\000\000\000\000\000\000\000\000\000\000\000U\002\000\000\000\000\000\000\000\000\000\000\000\000\000\000V\002\000\000\000\000\000\000\000\000\000\000\000\000\000\000W\002\000\000\000\000\000\000\000\000\000\000\000\000\000\000X\002\000\000\000\000\000\000\000\000\000\000\000\000\000\000Y\002\000\000\000\000\000\000\000\000\000\000\000\000\000\000Z\002\000\000\000\000\000\000\000\000\000\000\000\000\000\000"
      }
    }
  }
}
node {
  name: "SparseTensor/values"
  op: "Const"
  attr {
    key: "_output_shapes"
    value {
      list {
        shape {
          dim {
            size: 603
          }
        }
      }
    }
  }
  attr {
    key: "dtype"
    value {
      type: DT_STRING
    }
  }
  attr {
    key: "value"
    value {
      tensor {
        dtype: DT_STRING
        tensor_shape {
          dim {
            size: 603
          }
        }
        string_val: "94133"
        string_val: "94904"
        string_val: "94403"
        string_val: "94134"
        string_val: "94941"
        string_val: "95476"
        string_val: "94904"
        string_val: "94401"
        string_val: "94558"
        string_val: "94404"
        string_val: "94132"
        string_val: "90266"
        string_val: "94903"
        string_val: "94037"
        string_val: "94558"
        string_val: "94114"
        string_val: "94089"
        string_val: "94103"
        string_val: "94124"
        string_val: "94105"
        string_val: "94111"
        string_val: "94123"
        string_val: "94558"
        string_val: "94941"
        string_val: "94971"
        string_val: "94402"
        string_val: "95023"
        string_val: "94080"
        string_val: "94970"
        string_val: "94952"
        string_val: "94114"
        string_val: "94945"
        string_val: "94118"
        string_val: "89431"
        string_val: "94132"
        string_val: "94904"
        string_val: "94102"
        string_val: "94703"
        string_val: "94705"
        string_val: "94602"
        string_val: "94107"
        string_val: "94121"
        string_val: "94401"
        string_val: "94127"
        string_val: "94402"
        string_val: "94920"
        string_val: "95476"
        string_val: "94105"
        string_val: "94102"
        string_val: "94110"
        string_val: "94117"
        string_val: "94939"
        string_val: "94903"
        string_val: "94403"
        string_val: "90266"
        string_val: "94705"
        string_val: "94563"
        string_val: "94118"
        string_val: "94118"
        string_val: "94131"
        string_val: "94123"
        string_val: "94089"
        string_val: "94945"
        string_val: "94118"
        string_val: "94404"
        string_val: "95023"
        string_val: "94965"
        string_val: "94558"
        string_val: "94127"
        string_val: "94089"
        string_val: "94109"
        string_val: "94903"
        string_val: "94303"
        string_val: "94930"
        string_val: "94021"
        string_val: "94117"
        string_val: "95476"
        string_val: "94122"
        string_val: "94116"
        string_val: "94403"
        string_val: "94563"
        string_val: "94925"
        string_val: "94403"
        string_val: "94402"
        string_val: "94602"
        string_val: "95476"
        string_val: "94110"
        string_val: "95650"
        string_val: "94903"
        string_val: "94952"
        string_val: "94112"
        string_val: "94114"
        string_val: "94904"
        string_val: "95476"
        string_val: "94928"
        string_val: "94957"
        string_val: "94965"
        string_val: "94105"
        string_val: "95476"
        string_val: "94131"
        string_val: "94118"
        string_val: "94110"
        string_val: "94602"
        string_val: "94114"
        string_val: "94089"
        string_val: "94131"
        string_val: "94703"
        string_val: "94089"
        string_val: "94970"
        string_val: "94124"
        string_val: "90266"
        string_val: "95650"
        string_val: "94402"
        string_val: "94123"
        string_val: "94080"
        string_val: "94117"
        string_val: "94402"
        string_val: "94118"
        string_val: "95476"
        string_val: "94112"
        string_val: "94118"
        string_val: "94602"
        string_val: "94937"
        string_val: "94924"
        string_val: "94117"
        string_val: "90266"
        string_val: "95650"
        string_val: "94117"
        string_val: "94401"
        string_val: "94930"
        string_val: "94952"
        string_val: "94558"
        string_val: "94118"
        string_val: "94401"
        string_val: "94563"
        string_val: "94920"
        string_val: "94920"
        string_val: "94949"
        string_val: "94131"
        string_val: "94112"
        string_val: "94121"
        string_val: "94924"
        string_val: "94121"
        string_val: "94558"
        string_val: "94402"
        string_val: "94301"
        string_val: "94920"
        string_val: "94066"
        string_val: "94952"
        string_val: "94066"
        string_val: "94402"
        string_val: "89431"
        string_val: "94946"
        string_val: "94965"
        string_val: "94965"
        string_val: "94109"
        string_val: "95012"
        string_val: "94158"
        string_val: "94945"
        string_val: "94920"
        string_val: "94928"
        string_val: "94103"
        string_val: "95472"
        string_val: "94404"
        string_val: "94925"
        string_val: "94965"
        string_val: "94132"
        string_val: "95650"
        string_val: "89431"
        string_val: "94941"
        string_val: "94089"
        string_val: "94110"
        string_val: "94941"
        string_val: "94939"
        string_val: "94111"
        string_val: "94110"
        string_val: "94112"
        string_val: "94112"
        string_val: "94089"
        string_val: "94965"
        string_val: "94123"
        string_val: "94563"
        string_val: "94123"
        string_val: "94970"
        string_val: "94131"
        string_val: "94301"
        string_val: "95476"
        string_val: "94952"
        string_val: "94105"
        string_val: "94123"
        string_val: "94558"
        string_val: "94303"
        string_val: "89431"
        string_val: "94303"
        string_val: "94937"
        string_val: "94563"
        string_val: "94903"
        string_val: "94118"
        string_val: "94117"
        string_val: "94705"
        string_val: "94105"
        string_val: "94558"
        string_val: "94928"
        string_val: "94952"
        string_val: "95650"
        string_val: "94403"
        string_val: "94947"
        string_val: "94080"
        string_val: "94941"
        string_val: "94123"
        string_val: "94402"
        string_val: "94111"
        string_val: "94920"
        string_val: "94089"
        string_val: "90266"
        string_val: "94080"
        string_val: "94102"
        string_val: "95476"
        string_val: "94111"
        string_val: "94127"
        string_val: "94066"
        string_val: "94602"
        string_val: "94117"
        string_val: "94301"
        string_val: "94089"
        string_val: "90266"
        string_val: "94158"
        string_val: "94924"
        string_val: "94954"
        string_val: "94402"
        string_val: "94403"
        string_val: "94080"
        string_val: "94109"
        string_val: "94123"
        string_val: "94108"
        string_val: "94102"
        string_val: "94404"
        string_val: "94705"
        string_val: "94104"
        string_val: "94965"
        string_val: "94401"
        string_val: "94110"
        string_val: "95650"
        string_val: "94920"
        string_val: "94558"
        string_val: "95476"
        string_val: "94114"
        string_val: "94037"
        string_val: "94703"
        string_val: "94965"
        string_val: "94903"
        string_val: "94110"
        string_val: "94401"
        string_val: "94301"
        string_val: "94954"
        string_val: "94132"
        string_val: "95476"
        string_val: "94947"
        string_val: "94920"
        string_val: "94904"
        string_val: "94110"
        string_val: "94121"
        string_val: "94920"
        string_val: "94903"
        string_val: "94124"
        string_val: "89431"
        string_val: "94089"
        string_val: "94110"
        string_val: "94121"
        string_val: "94123"
        string_val: "94403"
        string_val: "94105"
        string_val: "94904"
        string_val: "95476"
        string_val: "89431"
        string_val: "94303"
        string_val: "94924"
        string_val: "90266"
        string_val: "95023"
        string_val: "94404"
        string_val: "94930"
        string_val: "90266"
        string_val: "94109"
        string_val: "94941"
        string_val: "94118"
        string_val: "94127"
        string_val: "94928"
        string_val: "95476"
        string_val: "94104"
        string_val: "95023"
        string_val: "94956"
        string_val: "94158"
        string_val: "94080"
        string_val: "94945"
        string_val: "90266"
        string_val: "89431"
        string_val: "94123"
        string_val: "94945"
        string_val: "94301"
        string_val: "94947"
        string_val: "94109"
        string_val: "94404"
        string_val: "94117"
        string_val: "89431"
        string_val: "94903"
        string_val: "95650"
        string_val: "94965"
        string_val: "94923"
        string_val: "94558"
        string_val: "94965"
        string_val: "94105"
        string_val: "94563"
        string_val: "94952"
        string_val: "94952"
        string_val: "94123"
        string_val: "90266"
        string_val: "94920"
        string_val: "94957"
        string_val: "94089"
        string_val: "94920"
        string_val: "90266"
        string_val: "94103"
        string_val: "95650"
        string_val: "94132"
        string_val: "94949"
        string_val: "94105"
        string_val: "94107"
        string_val: "94108"
        string_val: "94952"
        string_val: "95446"
        string_val: "94121"
        string_val: "95650"
        string_val: "94563"
        string_val: "94929"
        string_val: "94103"
        string_val: "95476"
        string_val: "95650"
        string_val: "94925"
        string_val: "94960"
        string_val: "94928"
        string_val: "94952"
        string_val: "94118"
        string_val: "94928"
        string_val: "94403"
        string_val: "94122"
        string_val: "94115"
        string_val: "94920"
        string_val: "94123"
        string_val: "94558"
        string_val: "94118"
        string_val: "94904"
        string_val: "94108"
        string_val: "94941"
        string_val: "94105"
        string_val: "94403"
        string_val: "94089"
        string_val: "94404"
        string_val: "94133"
        string_val: "94923"
        string_val: "94131"
        string_val: "95012"
        string_val: "94928"
        string_val: "94952"
        string_val: "94103"
        string_val: "94121"
        string_val: "95650"
        string_val: "94103"
        string_val: "95476"
        string_val: "94133"
        string_val: "94957"
        string_val: "94123"
        string_val: "95476"
        string_val: "94133"
        string_val: "94957"
        string_val: "94301"
        string_val: "94114"
        string_val: "94127"
        string_val: "94121"
        string_val: "94924"
        string_val: "94105"
        string_val: "94102"
        string_val: "94110"
        string_val: "94404"
        string_val: "94703"
        string_val: "94924"
        string_val: "94116"
        string_val: "94107"
        string_val: "94102"
        string_val: "94941"
        string_val: "94928"
        string_val: "94123"
        string_val: "94103"
        string_val: "89431"
        string_val: "94109"
        string_val: "94563"
        string_val: "94158"
        string_val: "95476"
        string_val: "94089"
        string_val: "90266"
        string_val: "94558"
        string_val: "94920"
        string_val: "94117"
        string_val: "94089"
        string_val: "94114"
        string_val: "94102"
        string_val: "94301"
        string_val: "94925"
        string_val: "94903"
        string_val: "94110"
        string_val: "94103"
        string_val: "94102"
        string_val: "94158"
        string_val: "94941"
        string_val: "94928"
        string_val: "94949"
        string_val: "94945"
        string_val: "94131"
        string_val: "94110"
        string_val: "94103"
        string_val: "94133"
        string_val: "94563"
        string_val: "94117"
        string_val: "94301"
        string_val: "94928"
        string_val: "94952"
        string_val: "94925"
        string_val: "94402"
        string_val: "94303"
        string_val: "94920"
        string_val: "94404"
        string_val: "94037"
        string_val: "90266"
        string_val: "94303"
        string_val: "94947"
        string_val: "94904"
        string_val: "94133"
        string_val: "90266"
        string_val: "94301"
        string_val: "94110"
        string_val: "94904"
        string_val: "94133"
        string_val: "94104"
        string_val: "94112"
        string_val: "94937"
        string_val: "94121"
        string_val: "94965"
        string_val: "94133"
        string_val: "89431"
        string_val: "94112"
        string_val: "90266"
        string_val: "94904"
        string_val: "94111"
        string_val: "94131"
        string_val: "94112"
        string_val: "94131"
        string_val: "94107"
        string_val: "95476"
        string_val: "94109"
        string_val: "94957"
        string_val: "94705"
        string_val: "90266"
        string_val: "94111"
        string_val: "94939"
        string_val: "94941"
        string_val: "94401"
        string_val: "94402"
        string_val: "94904"
        string_val: "94089"
        string_val: "94904"
        string_val: "94402"
        string_val: "94949"
        string_val: "94102"
        string_val: "94102"
        string_val: "94109"
        string_val: "94102"
        string_val: "94114"
        string_val: "94558"
        string_val: "95650"
        string_val: "94937"
        string_val: "94949"
        string_val: "94080"
        string_val: "94949"
        string_val: "94404"
        string_val: "94970"
        string_val: "89431"
        string_val: "94970"
        string_val: "94111"
        string_val: "94558"
        string_val: "94923"
        string_val: "94116"
        string_val: "94301"
        string_val: "89431"
        string_val: "89431"
        string_val: "95446"
        string_val: "94123"
        string_val: "94703"
        string_val: "94703"
        string_val: "94403"
        string_val: "94563"
        string_val: "94303"
        string_val: "95023"
        string_val: "94404"
        string_val: "94563"
        string_val: "94114"
        string_val: "94970"
        string_val: "94132"
        string_val: "94114"
        string_val: "94965"
        string_val: "94127"
        string_val: "94957"
        string_val: "94103"
        string_val: "94089"
        string_val: "94102"
        string_val: "94965"
        string_val: "94108"
        string_val: "94929"
        string_val: "94089"
        string_val: "94602"
        string_val: "94121"
        string_val: "94102"
        string_val: "94920"
        string_val: "94105"
        string_val: "94404"
        string_val: "95012"
        string_val: "94924"
        string_val: "94116"
        string_val: "94941"
        string_val: "94947"
        string_val: "94118"
        string_val: "94103"
        string_val: "94123"
        string_val: "94158"
        string_val: "95476"
        string_val: "94946"
        string_val: "94102"
        string_val: "94124"
        string_val: "94558"
        string_val: "94928"
        string_val: "94158"
        string_val: "94089"
        string_val: "94089"
        string_val: "94945"
        string_val: "95436"
        string_val: "94945"
        string_val: "90266"
        string_val: "94118"
        string_val: "90266"
        string_val: "95476"
        string_val: "94105"
        string_val: "94563"
        string_val: "94920"
        string_val: "94123"
        string_val: "94117"
        string_val: "94303"
        string_val: "94402"
        string_val: "94904"
        string_val: "94116"
        string_val: "94402"
        string_val: "94089"
        string_val: "94109"
        string_val: "94123"
        string_val: "94903"
        string_val: "95023"
        string_val: "94158"
        string_val: "94939"
        string_val: "94103"
        string_val: "94903"
        string_val: "94103"
        string_val: "94158"
        string_val: "94089"
        string_val: "94108"
        string_val: "94901"
        string_val: "94089"
        string_val: "94110"
        string_val: "94965"
        string_val: "94930"
        string_val: "94089"
        string_val: "94107"
        string_val: "89431"
        string_val: "94303"
        string_val: "94960"
        string_val: "94903"
        string_val: "94102"
        string_val: "94965"
        string_val: "94929"
        string_val: "94965"
        string_val: "90266"
        string_val: "94122"
        string_val: "94558"
        string_val: "89431"
        string_val: "94127"
        string_val: "94109"
        string_val: "94121"
        string_val: "94970"
        string_val: "94123"
        string_val: "94941"
        string_val: "90266"
        string_val: "94118"
        string_val: "94945"
        string_val: "90266"
        string_val: "94301"
        string_val: "94102"
        string_val: "94928"
      }
    }
  }
}
node {
  name: "SparseTensor/shape"
  op: "Const"
  attr {
    key: "_output_shapes"
    value {
      list {
        shape {
          dim {
            size: 2
          }
        }
      }
    }
  }
  attr {
    key: "dtype"
    value {
      type: DT_INT64
    }
  }
  attr {
    key: "value"
    value {
      tensor {
        dtype: DT_INT64
        tensor_shape {
          dim {
            size: 2
          }
        }
        tensor_content: "[\002\000\000\000\000\000\000\001\000\000\000\000\000\000\000"
      }
    }
  }
}
node {
  name: "SparseTensor_1/indices"
  op: "Const"
  attr {
    key: "_output_shapes"
    value {
      list {
        shape {
          dim {
            size: 603
          }
          dim {
            size: 2
          }
        }
      }
    }
  }
  attr {
    key: "dtype"
    value {
      type: DT_INT64
    }
  }
  attr {
    key: "value"
    value {
      tensor {
        dtype: DT_INT64
        tensor_shape {
          dim {
            size: 603
          }
          dim {
            size: 2
          }
        }
